custom_quantize_layers:
    /model.0/act/Mul_output_0: float16
    /model.1/conv/Conv_output_0: float16
    /model.1/act/Mul_output_0: float16
    /model.2/cv1/conv/Conv_output_0: float16
    /model.2/cv1/act/Mul_output_0: float16
    /model.2/Split_output_0: float16
    /model.2/Concat_output_0: float16
    /model.2/Split_output_1: float16
    /model.2/m.0/cv1/conv/Conv_output_0: float16
    /model.2/m.0/Add_output_0: float16
    /model.2/m.0/cv1/act/Mul_output_0: float16
    /model.2/m.0/cv2/conv/Conv_output_0: float16
    /model.2/m.0/cv2/act/Mul_output_0: float16
    /model.2/cv2/conv/Conv_output_0: float16
    /model.2/cv2/act/Mul_output_0: float16
    /model.3/conv/Conv_output_0: float16
    /model.4/m.1/cv2/act/Mul_output_0: float16
    /model.4/m.1/Add_output_0: float16
    /model.6/Split_output_0: float16
    /model.6/Concat_output_0: float16
    /model.6/m.1/cv2/act/Mul_output_0: float16
    /model.6/m.1/Add_output_0: float16
    /model.8/m.0/cv2/act/Mul_output_0: float16
    /model.8/m.0/Add_output_0: float16
    /model.18/m.0/cv2/act/Mul_output_0: float16
    /model.18/Concat_output_0: float16
    /model.21/m.0/cv2/act/Mul_output_0: float16
    /model.21/Concat_output_0: float16
    /model.22/cv2.2/cv2.2.0/act/Mul_output_0: float16
    /model.22/cv2.2/cv2.2.1/conv/Conv_output_0: float16
    /model.22/cv2.2/cv2.2.1/act/Mul_output_0: float16
    /model.22/cv2.2/cv2.2.2/Conv_output_0: float16
    /model.22/cv3.2/cv3.2.0/act/Mul_output_0: float16
    /model.22/cv3.2/cv3.2.1/conv/Conv_output_0: float16
    /model.22/cv3.2/cv3.2.1/act/Mul_output_0: float16
    /model.22/cv3.2/cv3.2.2/Conv_output_0: float16
    /model.22/cv2.1/cv2.1.0/act/Mul_output_0: float16
    /model.22/cv2.1/cv2.1.1/conv/Conv_output_0: float16
    /model.22/cv2.1/cv2.1.1/act/Mul_output_0: float16
    /model.22/cv2.1/cv2.1.2/Conv_output_0: float16
    /model.22/cv3.1/cv3.1.1/act/Mul_output_0: float16
    /model.22/cv3.1/cv3.1.2/Conv_output_0: float16
    /model.22/cv2.0/cv2.0.0/act/Mul_output_0: float16
    /model.22/cv2.0/cv2.0.1/conv/Conv_output_0: float16
    /model.22/cv2.0/cv2.0.1/act/Mul_output_0: float16
    /model.22/cv2.0/cv2.0.2/Conv_output_0: float16
    /model.22/cv3.0/cv3.0.1/act/Mul_output_0: float16
    /model.22/cv3.0/cv3.0.2/Conv_output_0: float16
    /model.22/dfl/Softmax_new: float16
    /model.22/dfl/conv/Conv_output_0: float16
    /model.22/Sigmoid_output_0: float16
    /model.22/Concat_5_swap_concat_reshape_i1_out: float16
    output0_shape4: float16
    output0_int8: float16
    output0: float16
quantize_parameters:
    images:
        qtype: asymmetric_quantized
        qmethod: layer
        dtype: float32
        min:
        -   0.0
        max:
        -   1.0
        scale: []
        zero_point: []
        ori_min:
        -   0.0
        ori_max:
        -   1.0
    /model.0/conv/Conv_output_0:
        qtype: asymmetric_quantized
        qmethod: layer
        dtype: int8
        min:
        -   -65.92035675048828
        max:
        -   79.32757568359375
        scale:
        -   0.5695997350356158
        zero_point:
        -   -12
        ori_min:
        -   -65.92035675048828
        ori_max:
        -   79.32757568359375
    /model.0/act/Mul_output_0:
        qtype: asymmetric_quantized
        qmethod: layer
        dtype: int8
        min:
        -   -0.27846458554267883
        max:
        -   79.32757568359375
        scale:
        -   0.3121805500750448
        zero_point:
        -   -127
        ori_min:
        -   -0.27846458554267883
        ori_max:
        -   79.32757568359375
    /model.1/conv/Conv_output_0:
        qtype: asymmetric_quantized
        qmethod: layer
        dtype: int8
        min:
        -   -129.20620727539062
        max:
        -   107.90708923339844
        scale:
        -   0.9298560647403493
        zero_point:
        -   11
        ori_min:
        -   -129.20620727539062
        ori_max:
        -   107.90708923339844
    /model.1/act/Mul_output_0:
        qtype: asymmetric_quantized
        qmethod: layer
        dtype: int8
        min:
        -   -0.27846458554267883
        max:
        -   107.90708923339844
        scale:
        -   0.42425707379976907
        zero_point:
        -   -127
        ori_min:
        -   -0.27846458554267883
        ori_max:
        -   107.90708923339844
    /model.2/cv1/conv/Conv_output_0:
        qtype: asymmetric_quantized
        qmethod: layer
        dtype: int8
        min:
        -   -87.0565414428711
        max:
        -   27.136791229248047
        scale:
        -   0.4478169908710555
        zero_point:
        -   66
        ori_min:
        -   -87.0565414428711
        ori_max:
        -   27.136791229248047
    /model.2/cv1/act/Mul_output_0:
        qtype: asymmetric_quantized
        qmethod: layer
        dtype: int8
        min:
        -   -0.27846458554267883
        max:
        -   27.136791229248047
        scale:
        -   0.10751080711682638
        zero_point:
        -   -125
        ori_min:
        -   -0.27846458554267883
        ori_max:
        -   27.136791229248047
    /model.2/Split_output_0:
        qtype: asymmetric_quantized
        qmethod: layer
        dtype: int8
        min:
        -   -0.27846458554267883
        max:
        -   27.136791229248047
        scale:
        -   0.10751080711682638
        zero_point:
        -   -125
        ori_min:
        -   -0.27846458554267883
        ori_max:
        -   27.136791229248047
    /model.2/Split_output_1:
        qtype: asymmetric_quantized
        qmethod: layer
        dtype: int8
        min:
        -   -0.27846458554267883
        max:
        -   16.064533233642578
        scale:
        -   0.06409018752621669
        zero_point:
        -   -124
        ori_min:
        -   -0.27846458554267883
        ori_max:
        -   16.064533233642578
    /model.2/m.0/cv1/conv/Conv_output_0:
        qtype: asymmetric_quantized
        qmethod: layer
        dtype: int8
        min:
        -   -38.97795867919922
        max:
        -   29.34418296813965
        scale:
        -   0.26792996724446616
        zero_point:
        -   17
        ori_min:
        -   -38.97795867919922
        ori_max:
        -   29.34418296813965
    /model.2/m.0/cv1/act/Mul_output_0:
        qtype: asymmetric_quantized
        qmethod: layer
        dtype: int8
        min:
        -   -0.27846458554267883
        max:
        -   29.34418296813965
        scale:
        -   0.11616724530855814
        zero_point:
        -   -126
        ori_min:
        -   -0.27846458554267883
        ori_max:
        -   29.34418296813965
    /model.2/m.0/cv2/conv/Conv_output_0:
        qtype: asymmetric_quantized
        qmethod: layer
        dtype: int8
        min:
        -   -36.88425064086914
        max:
        -   21.497310638427734
        scale:
        -   0.22894729913449754
        zero_point:
        -   33
        ori_min:
        -   -36.88425064086914
        ori_max:
        -   21.497310638427734
    /model.2/m.0/cv2/act/Mul_output_0:
        qtype: asymmetric_quantized
        qmethod: layer
        dtype: int8
        min:
        -   -0.27846458554267883
        max:
        -   21.497310638427734
        scale:
        -   0.08539519695674672
        zero_point:
        -   -125
        ori_min:
        -   -0.27846458554267883
        ori_max:
        -   21.497310638427734
    /model.2/m.0/Add_output_0:
        qtype: asymmetric_quantized
        qmethod: layer
        dtype: int8
        min:
        -   -0.5569291114807129
        max:
        -   23.038982391357422
        scale:
        -   0.09253298628563975
        zero_point:
        -   -122
        ori_min:
        -   -0.5569291114807129
        ori_max:
        -   23.038982391357422
    /model.2/Concat_output_0:
        qtype: asymmetric_quantized
        qmethod: layer
        dtype: int8
        min:
        -   -0.5569291114807129
        max:
        -   27.136791229248047
        scale:
        -   0.10860282486560298
        zero_point:
        -   -123
        ori_min:
        -   -0.5569291114807129
        ori_max:
        -   27.136791229248047
    /model.2/cv2/conv/Conv_output_0:
        qtype: asymmetric_quantized
        qmethod: layer
        dtype: int8
        min:
        -   -24.378681182861328
        max:
        -   12.295689582824707
        scale:
        -   0.14382106182621976
        zero_point:
        -   42
        ori_min:
        -   -24.378681182861328
        ori_max:
        -   12.295689582824707
    /model.2/cv2/act/Mul_output_0:
        qtype: asymmetric_quantized
        qmethod: layer
        dtype: int8
        min:
        -   -0.27846458554267883
        max:
        -   12.295634269714355
        scale:
        -   0.04931019158924327
        zero_point:
        -   -122
        ori_min:
        -   -0.27846458554267883
        ori_max:
        -   12.295634269714355
    /model.3/conv/Conv_output_0:
        qtype: asymmetric_quantized
        qmethod: layer
        dtype: int8
        min:
        -   -10.068827629089355
        max:
        -   9.006756782531738
        scale:
        -   0.07480621337890625
        zero_point:
        -   7
        ori_min:
        -   -10.068827629089355
        ori_max:
        -   9.006756782531738
    /model.3/act/Mul_output_0:
        qtype: asymmetric_quantized
        qmethod: layer
        dtype: int8
        min:
        -   -0.27846458554267883
        max:
        -   9.005653381347656
        scale:
        -   0.03640830575251112
        zero_point:
        -   -120
        ori_min:
        -   -0.27846458554267883
        ori_max:
        -   9.005653381347656
    /model.4/cv1/conv/Conv_output_0:
        qtype: asymmetric_quantized
        qmethod: layer
        dtype: int8
        min:
        -   -11.627685546875
        max:
        -   7.248836994171143
        scale:
        -   0.07402557859233781
        zero_point:
        -   29
        ori_min:
        -   -11.627685546875
        ori_max:
        -   7.248836994171143
    /model.4/cv1/act/Mul_output_0:
        qtype: asymmetric_quantized
        qmethod: layer
        dtype: int8
        min:
        -   -0.27846458554267883
        max:
        -   7.243686676025391
        scale:
        -   0.029498632398306156
        zero_point:
        -   -119
        ori_min:
        -   -0.27846458554267883
        ori_max:
        -   7.243686676025391
    /model.4/Split_output_0:
        qtype: asymmetric_quantized
        qmethod: layer
        dtype: int8
        min:
        -   -0.27846458554267883
        max:
        -   7.243686676025391
        scale:
        -   0.029498632398306156
        zero_point:
        -   -119
        ori_min:
        -   -0.27846458554267883
        ori_max:
        -   7.243686676025391
    /model.4/Split_output_1:
        qtype: asymmetric_quantized
        qmethod: layer
        dtype: int8
        min:
        -   -0.27846458554267883
        max:
        -   5.937191963195801
        scale:
        -   0.024375123720543058
        zero_point:
        -   -117
        ori_min:
        -   -0.27846458554267883
        ori_max:
        -   5.937191963195801
    /model.4/m.0/cv1/conv/Conv_output_0:
        qtype: asymmetric_quantized
        qmethod: layer
        dtype: int8
        min:
        -   -8.604043960571289
        max:
        -   6.794581890106201
        scale:
        -   0.06038676804187251
        zero_point:
        -   14
        ori_min:
        -   -8.604043960571289
        ori_max:
        -   6.794581890106201
    /model.4/m.0/cv1/act/Mul_output_0:
        qtype: asymmetric_quantized
        qmethod: layer
        dtype: int8
        min:
        -   -0.27846458554267883
        max:
        -   6.786981582641602
        scale:
        -   0.027707632032095218
        zero_point:
        -   -118
        ori_min:
        -   -0.27846458554267883
        ori_max:
        -   6.786981582641602
    /model.4/m.0/cv2/conv/Conv_output_0:
        qtype: asymmetric_quantized
        qmethod: layer
        dtype: int8
        min:
        -   -9.67011833190918
        max:
        -   7.585294246673584
        scale:
        -   0.06766828462189318
        zero_point:
        -   15
        ori_min:
        -   -9.67011833190918
        ori_max:
        -   7.585294246673584
    /model.4/m.0/cv2/act/Mul_output_0:
        qtype: asymmetric_quantized
        qmethod: layer
        dtype: int8
        min:
        -   -0.27846458554267883
        max:
        -   7.581443786621094
        scale:
        -   0.030823170086916755
        zero_point:
        -   -119
        ori_min:
        -   -0.27846458554267883
        ori_max:
        -   7.581443786621094
    /model.4/m.0/Add_output_0:
        qtype: asymmetric_quantized
        qmethod: layer
        dtype: int8
        min:
        -   -0.5569288730621338
        max:
        -   7.452446937561035
        scale:
        -   0.031409316904404586
        zero_point:
        -   -110
        ori_min:
        -   -0.5569288730621338
        ori_max:
        -   7.452446937561035
    /model.4/m.1/cv1/conv/Conv_output_0:
        qtype: asymmetric_quantized
        qmethod: layer
        dtype: int8
        min:
        -   -8.138965606689453
        max:
        -   6.402505397796631
        scale:
        -   0.05702537648818072
        zero_point:
        -   15
        ori_min:
        -   -8.138965606689453
        ori_max:
        -   6.402505397796631
    /model.4/m.1/cv1/act/Mul_output_0:
        qtype: asymmetric_quantized
        qmethod: layer
        dtype: int8
        min:
        -   -0.27846458554267883
        max:
        -   6.391911506652832
        scale:
        -   0.026158337616452983
        zero_point:
        -   -117
        ori_min:
        -   -0.27846458554267883
        ori_max:
        -   6.391911506652832
    /model.4/m.1/cv2/conv/Conv_output_0:
        qtype: asymmetric_quantized
        qmethod: layer
        dtype: int8
        min:
        -   -15.671479225158691
        max:
        -   10.957246780395508
        scale:
        -   0.10442637649236941
        zero_point:
        -   22
        ori_min:
        -   -15.671479225158691
        ori_max:
        -   10.957246780395508
    /model.4/m.1/cv2/act/Mul_output_0:
        qtype: asymmetric_quantized
        qmethod: layer
        dtype: int8
        min:
        -   -0.27846458554267883
        max:
        -   10.957056045532227
        scale:
        -   0.04406086521990159
        zero_point:
        -   -122
        ori_min:
        -   -0.27846458554267883
        ori_max:
        -   10.957056045532227
    /model.4/m.1/Add_output_0:
        qtype: asymmetric_quantized
        qmethod: layer
        dtype: int8
        min:
        -   -0.8353734016418457
        max:
        -   11.43433666229248
        scale:
        -   0.048116510054644415
        zero_point:
        -   -111
        ori_min:
        -   -0.8353734016418457
        ori_max:
        -   11.43433666229248
    /model.4/Concat_output_0:
        qtype: asymmetric_quantized
        qmethod: layer
        dtype: int8
        min:
        -   -0.8353734016418457
        max:
        -   11.43433666229248
        scale:
        -   0.048116510054644415
        zero_point:
        -   -111
        ori_min:
        -   -0.8353734016418457
        ori_max:
        -   11.43433666229248
    /model.4/cv2/conv/Conv_output_0:
        qtype: asymmetric_quantized
        qmethod: layer
        dtype: int8
        min:
        -   -13.140068054199219
        max:
        -   13.575292587280273
        scale:
        -   0.10476612016266468
        zero_point:
        -   -3
        ori_min:
        -   -13.140068054199219
        ori_max:
        -   13.575292587280273
    /model.4/cv2/act/Mul_output_0:
        qtype: asymmetric_quantized
        qmethod: layer
        dtype: int8
        min:
        -   -0.27846458554267883
        max:
        -   13.575274467468262
        scale:
        -   0.05432838844318016
        zero_point:
        -   -123
        ori_min:
        -   -0.27846458554267883
        ori_max:
        -   13.575274467468262
    /model.5/conv/Conv_output_0:
        qtype: asymmetric_quantized
        qmethod: layer
        dtype: int8
        min:
        -   -11.591370582580566
        max:
        -   10.268672943115234
        scale:
        -   0.08572566088508157
        zero_point:
        -   7
        ori_min:
        -   -11.591370582580566
        ori_max:
        -   10.268672943115234
    /model.5/act/Mul_output_0:
        qtype: asymmetric_quantized
        qmethod: layer
        dtype: int8
        min:
        -   -0.27846458554267883
        max:
        -   10.268316268920898
        scale:
        -   0.04135992491946501
        zero_point:
        -   -121
        ori_min:
        -   -0.27846458554267883
        ori_max:
        -   10.268316268920898
    /model.6/cv1/conv/Conv_output_0:
        qtype: asymmetric_quantized
        qmethod: layer
        dtype: int8
        min:
        -   -15.585013389587402
        max:
        -   14.140067100524902
        scale:
        -   0.11656894309847962
        zero_point:
        -   6
        ori_min:
        -   -15.585013389587402
        ori_max:
        -   14.140067100524902
    /model.6/cv1/act/Mul_output_0:
        qtype: asymmetric_quantized
        qmethod: layer
        dtype: int8
        min:
        -   -0.27846458554267883
        max:
        -   14.140056610107422
        scale:
        -   0.05654322037509844
        zero_point:
        -   -123
        ori_min:
        -   -0.27846458554267883
        ori_max:
        -   14.140056610107422
    /model.6/Split_output_0:
        qtype: asymmetric_quantized
        qmethod: layer
        dtype: int8
        min:
        -   -0.27846458554267883
        max:
        -   14.140056610107422
        scale:
        -   0.05654322037509844
        zero_point:
        -   -123
        ori_min:
        -   -0.27846458554267883
        ori_max:
        -   14.140056610107422
    /model.6/Split_output_1:
        qtype: asymmetric_quantized
        qmethod: layer
        dtype: int8
        min:
        -   -0.27846458554267883
        max:
        -   8.378279685974121
        scale:
        -   0.03394801675104627
        zero_point:
        -   -120
        ori_min:
        -   -0.27846458554267883
        ori_max:
        -   8.378279685974121
    /model.6/m.0/cv1/conv/Conv_output_0:
        qtype: asymmetric_quantized
        qmethod: layer
        dtype: int8
        min:
        -   -8.378311157226562
        max:
        -   10.515740394592285
        scale:
        -   0.0740943198110543
        zero_point:
        -   -15
        ori_min:
        -   -8.378311157226562
        ori_max:
        -   10.515740394592285
    /model.6/m.0/cv1/act/Mul_output_0:
        qtype: asymmetric_quantized
        qmethod: layer
        dtype: int8
        min:
        -   -0.27846458554267883
        max:
        -   10.515456199645996
        scale:
        -   0.04232910111838696
        zero_point:
        -   -121
        ori_min:
        -   -0.27846458554267883
        ori_max:
        -   10.515456199645996
    /model.6/m.0/cv2/conv/Conv_output_0:
        qtype: asymmetric_quantized
        qmethod: layer
        dtype: int8
        min:
        -   -9.86253547668457
        max:
        -   9.06063461303711
        scale:
        -   0.07420851015577129
        zero_point:
        -   5
        ori_min:
        -   -9.86253547668457
        ori_max:
        -   9.06063461303711
    /model.6/m.0/cv2/act/Mul_output_0:
        qtype: asymmetric_quantized
        qmethod: layer
        dtype: int8
        min:
        -   -0.27846458554267883
        max:
        -   9.059582710266113
        scale:
        -   0.03661979331689722
        zero_point:
        -   -120
        ori_min:
        -   -0.27846458554267883
        ori_max:
        -   9.059582710266113
    /model.6/m.0/Add_output_0:
        qtype: asymmetric_quantized
        qmethod: layer
        dtype: int8
        min:
        -   -0.5569289922714233
        max:
        -   11.553610801696777
        scale:
        -   0.04749231291752236
        zero_point:
        -   -116
        ori_min:
        -   -0.5569289922714233
        ori_max:
        -   11.553610801696777
    /model.6/m.1/cv1/conv/Conv_output_0:
        qtype: asymmetric_quantized
        qmethod: layer
        dtype: int8
        min:
        -   -9.954795837402344
        max:
        -   8.322298049926758
        scale:
        -   0.07167487798952589
        zero_point:
        -   11
        ori_min:
        -   -9.954795837402344
        ori_max:
        -   8.322298049926758
    /model.6/m.1/cv1/act/Mul_output_0:
        qtype: asymmetric_quantized
        qmethod: layer
        dtype: int8
        min:
        -   -0.27846458554267883
        max:
        -   8.32027530670166
        scale:
        -   0.033720548597036624
        zero_point:
        -   -120
        ori_min:
        -   -0.27846458554267883
        ori_max:
        -   8.32027530670166
    /model.6/m.1/cv2/conv/Conv_output_0:
        qtype: asymmetric_quantized
        qmethod: layer
        dtype: int8
        min:
        -   -13.101615905761719
        max:
        -   16.48834991455078
        scale:
        -   0.11603908164828432
        zero_point:
        -   -15
        ori_min:
        -   -13.101615905761719
        ori_max:
        -   16.48834991455078
    /model.6/m.1/cv2/act/Mul_output_0:
        qtype: asymmetric_quantized
        qmethod: layer
        dtype: int8
        min:
        -   -0.27846458554267883
        max:
        -   16.48834800720215
        scale:
        -   0.06575220624605814
        zero_point:
        -   -124
        ori_min:
        -   -0.27846458554267883
        ori_max:
        -   16.48834800720215
    /model.6/m.1/Add_output_0:
        qtype: asymmetric_quantized
        qmethod: layer
        dtype: int8
        min:
        -   -0.8353731036186218
        max:
        -   16.17528533935547
        scale:
        -   0.06670846448225133
        zero_point:
        -   -115
        ori_min:
        -   -0.8353731036186218
        ori_max:
        -   16.17528533935547
    /model.6/Concat_output_0:
        qtype: asymmetric_quantized
        qmethod: layer
        dtype: int8
        min:
        -   -0.8353731036186218
        max:
        -   16.17528533935547
        scale:
        -   0.06670846448225133
        zero_point:
        -   -115
        ori_min:
        -   -0.8353731036186218
        ori_max:
        -   16.17528533935547
    /model.6/cv2/conv/Conv_output_0:
        qtype: asymmetric_quantized
        qmethod: layer
        dtype: int8
        min:
        -   -8.697810173034668
        max:
        -   10.694393157958984
        scale:
        -   0.0760478561999751
        zero_point:
        -   -14
        ori_min:
        -   -8.697810173034668
        ori_max:
        -   10.694393157958984
    /model.6/cv2/act/Mul_output_0:
        qtype: asymmetric_quantized
        qmethod: layer
        dtype: int8
        min:
        -   -0.27846458554267883
        max:
        -   10.694150924682617
        scale:
        -   0.043029864745981555
        zero_point:
        -   -122
        ori_min:
        -   -0.27846458554267883
        ori_max:
        -   10.694150924682617
    /model.7/conv/Conv_output_0:
        qtype: asymmetric_quantized
        qmethod: layer
        dtype: int8
        min:
        -   -9.277922630310059
        max:
        -   8.579333305358887
        scale:
        -   0.07002845464968215
        zero_point:
        -   4
        ori_min:
        -   -9.277922630310059
        ori_max:
        -   8.579333305358887
    /model.7/act/Mul_output_0:
        qtype: asymmetric_quantized
        qmethod: layer
        dtype: int8
        min:
        -   -0.27846458554267883
        max:
        -   8.577720642089844
        scale:
        -   0.03473013814757852
        zero_point:
        -   -120
        ori_min:
        -   -0.27846458554267883
        ori_max:
        -   8.577720642089844
    /model.8/cv1/conv/Conv_output_0:
        qtype: asymmetric_quantized
        qmethod: layer
        dtype: int8
        min:
        -   -11.124463081359863
        max:
        -   11.720711708068848
        scale:
        -   0.0895889207428577
        zero_point:
        -   -4
        ori_min:
        -   -11.124463081359863
        ori_max:
        -   11.720711708068848
    /model.8/cv1/act/Mul_output_0:
        qtype: asymmetric_quantized
        qmethod: layer
        dtype: int8
        min:
        -   -0.27846458554267883
        max:
        -   11.720616340637207
        scale:
        -   0.04705521931835249
        zero_point:
        -   -122
        ori_min:
        -   -0.27846458554267883
        ori_max:
        -   11.720616340637207
    /model.8/Split_output_0:
        qtype: asymmetric_quantized
        qmethod: layer
        dtype: int8
        min:
        -   -0.27846455574035645
        max:
        -   10.394821166992188
        scale:
        -   0.04185602244208841
        zero_point:
        -   -121
        ori_min:
        -   -0.27846455574035645
        ori_max:
        -   10.394821166992188
    /model.8/Split_output_1:
        qtype: asymmetric_quantized
        qmethod: layer
        dtype: int8
        min:
        -   -0.27846458554267883
        max:
        -   11.720616340637207
        scale:
        -   0.04705521931835249
        zero_point:
        -   -122
        ori_min:
        -   -0.27846458554267883
        ori_max:
        -   11.720616340637207
    /model.8/m.0/cv1/conv/Conv_output_0:
        qtype: asymmetric_quantized
        qmethod: layer
        dtype: int8
        min:
        -   -10.889154434204102
        max:
        -   11.525260925292969
        scale:
        -   0.0878996680764591
        zero_point:
        -   -4
        ori_min:
        -   -10.889154434204102
        ori_max:
        -   11.525260925292969
    /model.8/m.0/cv1/act/Mul_output_0:
        qtype: asymmetric_quantized
        qmethod: layer
        dtype: int8
        min:
        -   -0.27846458554267883
        max:
        -   11.525146484375
        scale:
        -   0.04628867086242227
        zero_point:
        -   -122
        ori_min:
        -   -0.27846458554267883
        ori_max:
        -   11.525146484375
    /model.8/m.0/cv2/conv/Conv_output_0:
        qtype: asymmetric_quantized
        qmethod: layer
        dtype: int8
        min:
        -   -13.175451278686523
        max:
        -   16.313154220581055
        scale:
        -   0.11564159019320619
        zero_point:
        -   -14
        ori_min:
        -   -13.175451278686523
        ori_max:
        -   16.313154220581055
    /model.8/m.0/cv2/act/Mul_output_0:
        qtype: asymmetric_quantized
        qmethod: layer
        dtype: int8
        min:
        -   -0.27846458554267883
        max:
        -   16.313152313232422
        scale:
        -   0.06506516430892197
        zero_point:
        -   -124
        ori_min:
        -   -0.27846458554267883
        ori_max:
        -   16.313152313232422
    /model.8/m.0/Add_output_0:
        qtype: asymmetric_quantized
        qmethod: layer
        dtype: int8
        min:
        -   -0.5569289922714233
        max:
        -   16.035076141357422
        scale:
        -   0.06506668679854449
        zero_point:
        -   -119
        ori_min:
        -   -0.5569289922714233
        ori_max:
        -   16.035076141357422
    /model.8/Concat_output_0:
        qtype: asymmetric_quantized
        qmethod: layer
        dtype: int8
        min:
        -   -0.5569289922714233
        max:
        -   16.035076141357422
        scale:
        -   0.06506668679854449
        zero_point:
        -   -119
        ori_min:
        -   -0.5569289922714233
        ori_max:
        -   16.035076141357422
    /model.8/cv2/conv/Conv_output_0:
        qtype: asymmetric_quantized
        qmethod: layer
        dtype: int8
        min:
        -   -11.761929512023926
        max:
        -   10.962118148803711
        scale:
        -   0.08911391239540249
        zero_point:
        -   4
        ori_min:
        -   -11.761929512023926
        ori_max:
        -   10.962118148803711
    /model.8/cv2/act/Mul_output_0:
        qtype: asymmetric_quantized
        qmethod: layer
        dtype: int8
        min:
        -   -0.27846458554267883
        max:
        -   10.96192741394043
        scale:
        -   0.04407996862542395
        zero_point:
        -   -122
        ori_min:
        -   -0.27846458554267883
        ori_max:
        -   10.96192741394043
    /model.9/cv1/conv/Conv_output_0:
        qtype: asymmetric_quantized
        qmethod: layer
        dtype: int8
        min:
        -   -6.361930847167969
        max:
        -   8.498345375061035
        scale:
        -   0.05827559302834903
        zero_point:
        -   -19
        ori_min:
        -   -6.361930847167969
        ori_max:
        -   8.498345375061035
    /model.9/cv1/act/Mul_output_0:
        qtype: asymmetric_quantized
        qmethod: layer
        dtype: int8
        min:
        -   -0.27846458554267883
        max:
        -   8.496613502502441
        scale:
        -   0.03441207093351027
        zero_point:
        -   -120
        ori_min:
        -   -0.27846458554267883
        ori_max:
        -   8.496613502502441
    /model.9/m/MaxPool_output_0:
        qtype: asymmetric_quantized
        qmethod: layer
        dtype: int8
        min:
        -   -0.27846458554267883
        max:
        -   8.496613502502441
        scale:
        -   0.03441207093351027
        zero_point:
        -   -120
        ori_min:
        -   -0.2722055912017822
        ori_max:
        -   8.496613502502441
    /model.9/m_1/MaxPool_output_0:
        qtype: asymmetric_quantized
        qmethod: layer
        dtype: int8
        min:
        -   -0.27846458554267883
        max:
        -   8.496613502502441
        scale:
        -   0.03441207093351027
        zero_point:
        -   -120
        ori_min:
        -   -0.22934237122535706
        ori_max:
        -   8.496613502502441
    /model.9/m_2/MaxPool_output_0:
        qtype: asymmetric_quantized
        qmethod: layer
        dtype: int8
        min:
        -   -0.27846458554267883
        max:
        -   8.496613502502441
        scale:
        -   0.03441207093351027
        zero_point:
        -   -120
        ori_min:
        -   -0.2109120637178421
        ori_max:
        -   8.496613502502441
    /model.9/Concat_output_0:
        qtype: asymmetric_quantized
        qmethod: layer
        dtype: int8
        min:
        -   -0.27846458554267883
        max:
        -   8.496613502502441
        scale:
        -   0.03441207093351027
        zero_point:
        -   -120
        ori_min:
        -   -0.27846458554267883
        ori_max:
        -   8.496613502502441
    /model.9/cv2/conv/Conv_output_0:
        qtype: asymmetric_quantized
        qmethod: layer
        dtype: int8
        min:
        -   -8.3749418258667
        max:
        -   8.682136535644531
        scale:
        -   0.06689050337847541
        zero_point:
        -   -3
        ori_min:
        -   -8.3749418258667
        ori_max:
        -   8.682136535644531
    /model.9/cv2/act/Mul_output_0:
        qtype: asymmetric_quantized
        qmethod: layer
        dtype: int8
        min:
        -   -0.27846458554267883
        max:
        -   8.6806640625
        scale:
        -   0.035133837835461486
        zero_point:
        -   -120
        ori_min:
        -   -0.27846458554267883
        ori_max:
        -   8.6806640625
    /model.10/Resize_output_0:
        qtype: asymmetric_quantized
        qmethod: layer
        dtype: int8
        min:
        -   -0.27846458554267883
        max:
        -   8.6806640625
        scale:
        -   0.035133837835461486
        zero_point:
        -   -120
        ori_min:
        -   -0.27846458554267883
        ori_max:
        -   8.6806640625
    /model.11/Concat_output_0:
        qtype: asymmetric_quantized
        qmethod: layer
        dtype: int8
        min:
        -   -0.27846458554267883
        max:
        -   10.694150924682617
        scale:
        -   0.043029864745981555
        zero_point:
        -   -122
        ori_min:
        -   -0.27846458554267883
        ori_max:
        -   10.694150924682617
    /model.12/cv1/conv/Conv_output_0:
        qtype: asymmetric_quantized
        qmethod: layer
        dtype: int8
        min:
        -   -9.29914665222168
        max:
        -   14.45750617980957
        scale:
        -   0.09316334443933824
        zero_point:
        -   -28
        ori_min:
        -   -9.29914665222168
        ori_max:
        -   14.45750617980957
    /model.12/cv1/act/Mul_output_0:
        qtype: asymmetric_quantized
        qmethod: layer
        dtype: int8
        min:
        -   -0.27846458554267883
        max:
        -   14.457499504089355
        scale:
        -   0.057788094469145235
        zero_point:
        -   -123
        ori_min:
        -   -0.27846458554267883
        ori_max:
        -   14.457499504089355
    /model.12/Split_output_0:
        qtype: asymmetric_quantized
        qmethod: layer
        dtype: int8
        min:
        -   -0.27846458554267883
        max:
        -   14.457499504089355
        scale:
        -   0.057788094469145235
        zero_point:
        -   -123
        ori_min:
        -   -0.27846458554267883
        ori_max:
        -   14.457499504089355
    /model.12/Split_output_1:
        qtype: asymmetric_quantized
        qmethod: layer
        dtype: int8
        min:
        -   -0.27846458554267883
        max:
        -   7.794689178466797
        scale:
        -   0.031659426525527355
        zero_point:
        -   -119
        ori_min:
        -   -0.27846458554267883
        ori_max:
        -   7.794689178466797
    /model.12/m.0/cv1/conv/Conv_output_0:
        qtype: asymmetric_quantized
        qmethod: layer
        dtype: int8
        min:
        -   -9.388203620910645
        max:
        -   7.589143753051758
        scale:
        -   0.06657783283906825
        zero_point:
        -   13
        ori_min:
        -   -9.388203620910645
        ori_max:
        -   7.589143753051758
    /model.12/m.0/cv1/act/Mul_output_0:
        qtype: asymmetric_quantized
        qmethod: layer
        dtype: int8
        min:
        -   -0.27846458554267883
        max:
        -   7.585306167602539
        scale:
        -   0.030838316679000853
        zero_point:
        -   -119
        ori_min:
        -   -0.27846458554267883
        ori_max:
        -   7.585306167602539
    /model.12/m.0/cv2/conv/Conv_output_0:
        qtype: asymmetric_quantized
        qmethod: layer
        dtype: int8
        min:
        -   -11.567214965820312
        max:
        -   9.423883438110352
        scale:
        -   0.08231803295659083
        zero_point:
        -   13
        ori_min:
        -   -11.567214965820312
        ori_max:
        -   9.423883438110352
    /model.12/m.0/cv2/act/Mul_output_0:
        qtype: asymmetric_quantized
        qmethod: layer
        dtype: int8
        min:
        -   -0.27846458554267883
        max:
        -   9.423121452331543
        scale:
        -   0.03804543544264401
        zero_point:
        -   -121
        ori_min:
        -   -0.27846458554267883
        ori_max:
        -   9.423121452331543
    /model.12/Concat_output_0:
        qtype: asymmetric_quantized
        qmethod: layer
        dtype: int8
        min:
        -   -0.27846458554267883
        max:
        -   14.457499504089355
        scale:
        -   0.057788094469145235
        zero_point:
        -   -123
        ori_min:
        -   -0.27846458554267883
        ori_max:
        -   14.457499504089355
    /model.12/cv2/conv/Conv_output_0:
        qtype: asymmetric_quantized
        qmethod: layer
        dtype: int8
        min:
        -   -12.536617279052734
        max:
        -   8.92596435546875
        scale:
        -   0.08416698680204504
        zero_point:
        -   21
        ori_min:
        -   -12.536617279052734
        ori_max:
        -   8.92596435546875
    /model.12/cv2/act/Mul_output_0:
        qtype: asymmetric_quantized
        qmethod: layer
        dtype: int8
        min:
        -   -0.27846458554267883
        max:
        -   8.92477798461914
        scale:
        -   0.03609114733396792
        zero_point:
        -   -120
        ori_min:
        -   -0.27846458554267883
        ori_max:
        -   8.92477798461914
    /model.13/Resize_output_0:
        qtype: asymmetric_quantized
        qmethod: layer
        dtype: int8
        min:
        -   -0.27846458554267883
        max:
        -   8.92477798461914
        scale:
        -   0.03609114733396792
        zero_point:
        -   -120
        ori_min:
        -   -0.27846458554267883
        ori_max:
        -   8.92477798461914
    /model.14/Concat_output_0:
        qtype: asymmetric_quantized
        qmethod: layer
        dtype: int8
        min:
        -   -0.27846458554267883
        max:
        -   13.575274467468262
        scale:
        -   0.05432838844318016
        zero_point:
        -   -123
        ori_min:
        -   -0.27846458554267883
        ori_max:
        -   13.575274467468262
    /model.15/cv1/conv/Conv_output_0:
        qtype: asymmetric_quantized
        qmethod: layer
        dtype: int8
        min:
        -   -9.063695907592773
        max:
        -   6.525378704071045
        scale:
        -   0.061133625928093405
        zero_point:
        -   20
        ori_min:
        -   -9.063695907592773
        ori_max:
        -   6.525378704071045
    /model.15/cv1/act/Mul_output_0:
        qtype: asymmetric_quantized
        qmethod: layer
        dtype: int8
        min:
        -   -0.27846458554267883
        max:
        -   6.515827655792236
        scale:
        -   0.02664428329935261
        zero_point:
        -   -118
        ori_min:
        -   -0.27846458554267883
        ori_max:
        -   6.515827655792236
    /model.15/Split_output_0:
        qtype: asymmetric_quantized
        qmethod: layer
        dtype: int8
        min:
        -   -0.27846458554267883
        max:
        -   6.515827655792236
        scale:
        -   0.02664428329935261
        zero_point:
        -   -118
        ori_min:
        -   -0.27846458554267883
        ori_max:
        -   6.515827655792236
    /model.15/Split_output_1:
        qtype: asymmetric_quantized
        qmethod: layer
        dtype: int8
        min:
        -   -0.27846458554267883
        max:
        -   5.8476104736328125
        scale:
        -   0.024023823761472517
        zero_point:
        -   -116
        ori_min:
        -   -0.27846458554267883
        ori_max:
        -   5.8476104736328125
    /model.15/m.0/cv1/conv/Conv_output_0:
        qtype: asymmetric_quantized
        qmethod: layer
        dtype: int8
        min:
        -   -8.590938568115234
        max:
        -   6.449358940124512
        scale:
        -   0.058981558855842144
        zero_point:
        -   18
        ori_min:
        -   -8.590938568115234
        ori_max:
        -   6.449358940124512
    /model.15/m.0/cv1/act/Mul_output_0:
        qtype: asymmetric_quantized
        qmethod: layer
        dtype: int8
        min:
        -   -0.27846458554267883
        max:
        -   6.439175128936768
        scale:
        -   0.02634368515482136
        zero_point:
        -   -117
        ori_min:
        -   -0.27846458554267883
        ori_max:
        -   6.439175128936768
    /model.15/m.0/cv2/conv/Conv_output_0:
        qtype: asymmetric_quantized
        qmethod: layer
        dtype: int8
        min:
        -   -10.062091827392578
        max:
        -   8.247383117675781
        scale:
        -   0.07180186252967984
        zero_point:
        -   12
        ori_min:
        -   -10.062091827392578
        ori_max:
        -   8.247383117675781
    /model.15/m.0/cv2/act/Mul_output_0:
        qtype: asymmetric_quantized
        qmethod: layer
        dtype: int8
        min:
        -   -0.27846458554267883
        max:
        -   8.245223999023438
        scale:
        -   0.033426229743396534
        zero_point:
        -   -120
        ori_min:
        -   -0.27846458554267883
        ori_max:
        -   8.245223999023438
    /model.15/Concat_output_0:
        qtype: asymmetric_quantized
        qmethod: layer
        dtype: int8
        min:
        -   -0.27846458554267883
        max:
        -   8.245223999023438
        scale:
        -   0.033426229743396534
        zero_point:
        -   -120
        ori_min:
        -   -0.27846458554267883
        ori_max:
        -   8.245223999023438
    /model.15/cv2/conv/Conv_output_0:
        qtype: asymmetric_quantized
        qmethod: layer
        dtype: int8
        min:
        -   -10.991410255432129
        max:
        -   6.432318687438965
        scale:
        -   0.06832834879557291
        zero_point:
        -   33
        ori_min:
        -   -10.991410255432129
        ori_max:
        -   6.432318687438965
    /model.15/cv2/act/Mul_output_0:
        qtype: asymmetric_quantized
        qmethod: layer
        dtype: int8
        min:
        -   -0.27846458554267883
        max:
        -   6.421987533569336
        scale:
        -   0.026276282820047115
        zero_point:
        -   -117
        ori_min:
        -   -0.27846458554267883
        ori_max:
        -   6.421987533569336
    /model.16/conv/Conv_output_0:
        qtype: asymmetric_quantized
        qmethod: layer
        dtype: int8
        min:
        -   -11.469649314880371
        max:
        -   10.610270500183105
        scale:
        -   0.08658792084338618
        zero_point:
        -   4
        ori_min:
        -   -11.469649314880371
        ori_max:
        -   10.610270500183105
    /model.16/act/Mul_output_0:
        qtype: asymmetric_quantized
        qmethod: layer
        dtype: int8
        min:
        -   -0.27846458554267883
        max:
        -   10.610008239746094
        scale:
        -   0.04269989343250499
        zero_point:
        -   -121
        ori_min:
        -   -0.27846458554267883
        ori_max:
        -   10.610008239746094
    /model.17/Concat_output_0:
        qtype: asymmetric_quantized
        qmethod: layer
        dtype: int8
        min:
        -   -0.27846458554267883
        max:
        -   10.610008239746094
        scale:
        -   0.04269989343250499
        zero_point:
        -   -121
        ori_min:
        -   -0.27846458554267883
        ori_max:
        -   10.610008239746094
    /model.18/cv1/conv/Conv_output_0:
        qtype: asymmetric_quantized
        qmethod: layer
        dtype: int8
        min:
        -   -12.233647346496582
        max:
        -   11.318695068359375
        scale:
        -   0.09236212711708218
        zero_point:
        -   4
        ori_min:
        -   -12.233647346496582
        ori_max:
        -   11.318695068359375
    /model.18/cv1/act/Mul_output_0:
        qtype: asymmetric_quantized
        qmethod: layer
        dtype: int8
        min:
        -   -0.27846458554267883
        max:
        -   11.318557739257812
        scale:
        -   0.04547851892078624
        zero_point:
        -   -122
        ori_min:
        -   -0.27846458554267883
        ori_max:
        -   11.318557739257812
    /model.18/Split_output_0:
        qtype: asymmetric_quantized
        qmethod: layer
        dtype: int8
        min:
        -   -0.27846458554267883
        max:
        -   10.434832572937012
        scale:
        -   0.04201293003325369
        zero_point:
        -   -121
        ori_min:
        -   -0.27846458554267883
        ori_max:
        -   10.434832572937012
    /model.18/Split_output_1:
        qtype: asymmetric_quantized
        qmethod: layer
        dtype: int8
        min:
        -   -0.27846458554267883
        max:
        -   11.318557739257812
        scale:
        -   0.04547851892078624
        zero_point:
        -   -122
        ori_min:
        -   -0.27846458554267883
        ori_max:
        -   11.318557739257812
    /model.18/m.0/cv1/conv/Conv_output_0:
        qtype: asymmetric_quantized
        qmethod: layer
        dtype: int8
        min:
        -   -9.370841026306152
        max:
        -   9.696454048156738
        scale:
        -   0.07477370617436428
        zero_point:
        -   -3
        ori_min:
        -   -9.370841026306152
        ori_max:
        -   9.696454048156738
    /model.18/m.0/cv1/act/Mul_output_0:
        qtype: asymmetric_quantized
        qmethod: layer
        dtype: int8
        min:
        -   -0.27846458554267883
        max:
        -   9.695858001708984
        scale:
        -   0.039114990538241814
        zero_point:
        -   -121
        ori_min:
        -   -0.27846458554267883
        ori_max:
        -   9.695858001708984
    /model.18/m.0/cv2/conv/Conv_output_0:
        qtype: asymmetric_quantized
        qmethod: layer
        dtype: int8
        min:
        -   -15.266380310058594
        max:
        -   13.079673767089844
        scale:
        -   0.11116099638097426
        zero_point:
        -   9
        ori_min:
        -   -15.266380310058594
        ori_max:
        -   13.079673767089844
    /model.18/m.0/cv2/act/Mul_output_0:
        qtype: asymmetric_quantized
        qmethod: layer
        dtype: int8
        min:
        -   -0.27846458554267883
        max:
        -   13.079646110534668
        scale:
        -   0.0523847478277543
        zero_point:
        -   -123
        ori_min:
        -   -0.27846458554267883
        ori_max:
        -   13.079646110534668
    /model.18/Concat_output_0:
        qtype: asymmetric_quantized
        qmethod: layer
        dtype: int8
        min:
        -   -0.27846458554267883
        max:
        -   13.079646110534668
        scale:
        -   0.0523847478277543
        zero_point:
        -   -123
        ori_min:
        -   -0.27846458554267883
        ori_max:
        -   13.079646110534668
    /model.18/cv2/conv/Conv_output_0:
        qtype: asymmetric_quantized
        qmethod: layer
        dtype: int8
        min:
        -   -34.243186950683594
        max:
        -   12.185028076171875
        scale:
        -   0.1820714314778646
        zero_point:
        -   60
        ori_min:
        -   -34.243186950683594
        ori_max:
        -   12.185028076171875
    /model.18/cv2/act/Mul_output_0:
        qtype: asymmetric_quantized
        qmethod: layer
        dtype: int8
        min:
        -   -0.27846458554267883
        max:
        -   12.184966087341309
        scale:
        -   0.04887619871719211
        zero_point:
        -   -122
        ori_min:
        -   -0.27846458554267883
        ori_max:
        -   12.184966087341309
    /model.19/conv/Conv_output_0:
        qtype: asymmetric_quantized
        qmethod: layer
        dtype: int8
        min:
        -   -15.80083179473877
        max:
        -   10.078211784362793
        scale:
        -   0.10148644540824142
        zero_point:
        -   28
        ori_min:
        -   -15.80083179473877
        ori_max:
        -   10.078211784362793
    /model.19/act/Mul_output_0:
        qtype: asymmetric_quantized
        qmethod: layer
        dtype: int8
        min:
        -   -0.27846458554267883
        max:
        -   10.077789306640625
        scale:
        -   0.04061276036150315
        zero_point:
        -   -121
        ori_min:
        -   -0.27846458554267883
        ori_max:
        -   10.077789306640625
    /model.20/Concat_output_0:
        qtype: asymmetric_quantized
        qmethod: layer
        dtype: int8
        min:
        -   -0.27846458554267883
        max:
        -   10.077789306640625
        scale:
        -   0.04061276036150315
        zero_point:
        -   -121
        ori_min:
        -   -0.27846458554267883
        ori_max:
        -   10.077789306640625
    /model.21/cv1/conv/Conv_output_0:
        qtype: asymmetric_quantized
        qmethod: layer
        dtype: int8
        min:
        -   -12.958767890930176
        max:
        -   10.160633087158203
        scale:
        -   0.0906643175611309
        zero_point:
        -   15
        ori_min:
        -   -12.958767890930176
        ori_max:
        -   10.160633087158203
    /model.21/cv1/act/Mul_output_0:
        qtype: asymmetric_quantized
        qmethod: layer
        dtype: int8
        min:
        -   -0.27846458554267883
        max:
        -   10.160240173339844
        scale:
        -   0.04093609709365695
        zero_point:
        -   -121
        ori_min:
        -   -0.27846458554267883
        ori_max:
        -   10.160240173339844
    /model.21/Split_output_0:
        qtype: asymmetric_quantized
        qmethod: layer
        dtype: int8
        min:
        -   -0.27846458554267883
        max:
        -   9.434768676757812
        scale:
        -   0.03809111083255095
        zero_point:
        -   -121
        ori_min:
        -   -0.27846458554267883
        ori_max:
        -   9.434768676757812
    /model.21/Split_output_1:
        qtype: asymmetric_quantized
        qmethod: layer
        dtype: int8
        min:
        -   -0.27846458554267883
        max:
        -   10.160240173339844
        scale:
        -   0.04093609709365695
        zero_point:
        -   -121
        ori_min:
        -   -0.27846458554267883
        ori_max:
        -   10.160240173339844
    /model.21/m.0/cv1/conv/Conv_output_0:
        qtype: asymmetric_quantized
        qmethod: layer
        dtype: int8
        min:
        -   -11.58007526397705
        max:
        -   8.240825653076172
        scale:
        -   0.07772902320413029
        zero_point:
        -   21
        ori_min:
        -   -11.58007526397705
        ori_max:
        -   8.240825653076172
    /model.21/m.0/cv1/act/Mul_output_0:
        qtype: asymmetric_quantized
        qmethod: layer
        dtype: int8
        min:
        -   -0.27846458554267883
        max:
        -   8.238653182983398
        scale:
        -   0.03340046183735717
        zero_point:
        -   -120
        ori_min:
        -   -0.27846458554267883
        ori_max:
        -   8.238653182983398
    /model.21/m.0/cv2/conv/Conv_output_0:
        qtype: asymmetric_quantized
        qmethod: layer
        dtype: int8
        min:
        -   -14.278165817260742
        max:
        -   14.076848983764648
        scale:
        -   0.11119613647460938
        zero_point:
        -   0
        ori_min:
        -   -14.278165817260742
        ori_max:
        -   14.076848983764648
    /model.21/m.0/cv2/act/Mul_output_0:
        qtype: asymmetric_quantized
        qmethod: layer
        dtype: int8
        min:
        -   -0.27846458554267883
        max:
        -   14.076838493347168
        scale:
        -   0.05629530619172489
        zero_point:
        -   -123
        ori_min:
        -   -0.27846458554267883
        ori_max:
        -   14.076838493347168
    /model.21/Concat_output_0:
        qtype: asymmetric_quantized
        qmethod: layer
        dtype: int8
        min:
        -   -0.27846458554267883
        max:
        -   14.076838493347168
        scale:
        -   0.05629530619172489
        zero_point:
        -   -123
        ori_min:
        -   -0.27846458554267883
        ori_max:
        -   14.076838493347168
    /model.21/cv2/conv/Conv_output_0:
        qtype: asymmetric_quantized
        qmethod: layer
        dtype: int8
        min:
        -   -21.72734260559082
        max:
        -   11.683916091918945
        scale:
        -   0.13102454391180302
        zero_point:
        -   38
        ori_min:
        -   -21.72734260559082
        ori_max:
        -   11.683916091918945
    /model.21/cv2/act/Mul_output_0:
        qtype: asymmetric_quantized
        qmethod: layer
        dtype: int8
        min:
        -   -0.27846458554267883
        max:
        -   11.683816909790039
        scale:
        -   0.04691090782483419
        zero_point:
        -   -122
        ori_min:
        -   -0.27846458554267883
        ori_max:
        -   11.683816909790039
    /model.22/cv2.2/cv2.2.0/conv/Conv_output_0:
        qtype: asymmetric_quantized
        qmethod: layer
        dtype: int8
        min:
        -   -15.085742950439453
        max:
        -   12.739151000976562
        scale:
        -   0.10911723118202359
        zero_point:
        -   10
        ori_min:
        -   -15.085742950439453
        ori_max:
        -   12.739151000976562
    /model.22/cv2.2/cv2.2.0/act/Mul_output_0:
        qtype: asymmetric_quantized
        qmethod: layer
        dtype: int8
        min:
        -   -0.27846455574035645
        max:
        -   12.739112854003906
        scale:
        -   0.0510493231754677
        zero_point:
        -   -123
        ori_min:
        -   -0.27846455574035645
        ori_max:
        -   12.739112854003906
    /model.22/cv2.2/cv2.2.1/conv/Conv_output_0:
        qtype: asymmetric_quantized
        qmethod: layer
        dtype: int8
        min:
        -   -34.64957046508789
        max:
        -   50.57786560058594
        scale:
        -   0.3342252394732307
        zero_point:
        -   -24
        ori_min:
        -   -34.64957046508789
        ori_max:
        -   50.57786560058594
    /model.22/cv2.2/cv2.2.1/act/Mul_output_0:
        qtype: asymmetric_quantized
        qmethod: layer
        dtype: int8
        min:
        -   -0.27846455574035645
        max:
        -   50.57786560058594
        scale:
        -   0.1994365888483384
        zero_point:
        -   -127
        ori_min:
        -   -0.27846455574035645
        ori_max:
        -   50.57786560058594
    /model.22/cv2.2/cv2.2.2/Conv_output_0:
        qtype: asymmetric_quantized
        qmethod: layer
        dtype: int8
        min:
        -   -8.763337135314941
        max:
        -   13.368183135986328
        scale:
        -   0.08679027557373047
        zero_point:
        -   -27
        ori_min:
        -   -8.763337135314941
        ori_max:
        -   13.368183135986328
    /model.22/cv3.2/cv3.2.0/conv/Conv_output_0:
        qtype: asymmetric_quantized
        qmethod: layer
        dtype: int8
        min:
        -   -22.097469329833984
        max:
        -   12.531049728393555
        scale:
        -   0.13579811395383348
        zero_point:
        -   35
        ori_min:
        -   -22.097469329833984
        ori_max:
        -   12.531049728393555
    /model.22/cv3.2/cv3.2.0/act/Mul_output_0:
        qtype: asymmetric_quantized
        qmethod: layer
        dtype: int8
        min:
        -   -0.27846458554267883
        max:
        -   12.531004905700684
        scale:
        -   0.05023321369115044
        zero_point:
        -   -122
        ori_min:
        -   -0.27846458554267883
        ori_max:
        -   12.531004905700684
    /model.22/cv3.2/cv3.2.1/conv/Conv_output_0:
        qtype: asymmetric_quantized
        qmethod: layer
        dtype: int8
        min:
        -   -49.631290435791016
        max:
        -   72.53764343261719
        scale:
        -   0.47909385830748313
        zero_point:
        -   -24
        ori_min:
        -   -49.631290435791016
        ori_max:
        -   72.53764343261719
    /model.22/cv3.2/cv3.2.1/act/Mul_output_0:
        qtype: asymmetric_quantized
        qmethod: layer
        dtype: int8
        min:
        -   -0.27846455574035645
        max:
        -   72.53764343261719
        scale:
        -   0.2855533646602257
        zero_point:
        -   -127
        ori_min:
        -   -0.27846455574035645
        ori_max:
        -   72.53764343261719
    /model.22/cv3.2/cv3.2.2/Conv_output_0:
        qtype: asymmetric_quantized
        qmethod: layer
        dtype: int8
        min:
        -   -8.969922065734863
        max:
        -   3.464352607727051
        scale:
        -   0.04876186146455653
        zero_point:
        -   56
        ori_min:
        -   -52.49195098876953
        ori_max:
        -   3.464352607727051
    /model.22/Concat_2_output_0:
        qtype: asymmetric_quantized
        qmethod: layer
        dtype: int8
        min:
        -   -8.969922065734863
        max:
        -   13.368183135986328
        scale:
        -   0.08760041255576938
        zero_point:
        -   -26
        ori_min:
        -   -52.49195098876953
        ori_max:
        -   13.368183135986328
    /model.22/Reshape_2_output_0_shape4_/model.22/Concat_3:
        qtype: asymmetric_quantized
        qmethod: layer
        dtype: int8
        min:
        -   -8.969922065734863
        max:
        -   13.368183135986328
        scale:
        -   0.08760041255576938
        zero_point:
        -   -26
        ori_min:
        -   -52.49195098876953
        ori_max:
        -   13.368183135986328
    /model.22/cv2.1/cv2.1.0/conv/Conv_output_0:
        qtype: asymmetric_quantized
        qmethod: layer
        dtype: int8
        min:
        -   -16.9776668548584
        max:
        -   11.17150592803955
        scale:
        -   0.11038891287410961
        zero_point:
        -   26
        ori_min:
        -   -16.9776668548584
        ori_max:
        -   11.17150592803955
    /model.22/cv2.1/cv2.1.0/act/Mul_output_0:
        qtype: asymmetric_quantized
        qmethod: layer
        dtype: int8
        min:
        -   -0.27846458554267883
        max:
        -   11.171348571777344
        scale:
        -   0.044901228067921656
        zero_point:
        -   -122
        ori_min:
        -   -0.27846458554267883
        ori_max:
        -   11.171348571777344
    /model.22/cv2.1/cv2.1.1/conv/Conv_output_0:
        qtype: asymmetric_quantized
        qmethod: layer
        dtype: int8
        min:
        -   -30.744728088378906
        max:
        -   56.97927474975586
        scale:
        -   0.34401569740445004
        zero_point:
        -   -39
        ori_min:
        -   -30.744728088378906
        ori_max:
        -   56.97927474975586
    /model.22/cv2.1/cv2.1.1/act/Mul_output_0:
        qtype: asymmetric_quantized
        qmethod: layer
        dtype: int8
        min:
        -   -0.27846458554267883
        max:
        -   56.97927474975586
        scale:
        -   0.2245401542560727
        zero_point:
        -   -127
        ori_min:
        -   -0.27846458554267883
        ori_max:
        -   56.97927474975586
    /model.22/cv2.1/cv2.1.2/Conv_output_0:
        qtype: asymmetric_quantized
        qmethod: layer
        dtype: int8
        min:
        -   -7.198540687561035
        max:
        -   14.343157768249512
        scale:
        -   0.08447724884631587
        zero_point:
        -   -43
        ori_min:
        -   -7.198540687561035
        ori_max:
        -   14.343157768249512
    /model.22/cv3.1/cv3.1.0/conv/Conv_output_0:
        qtype: asymmetric_quantized
        qmethod: layer
        dtype: int8
        min:
        -   -24.175029754638672
        max:
        -   11.952371597290039
        scale:
        -   0.14167608373305376
        zero_point:
        -   43
        ori_min:
        -   -24.175029754638672
        ori_max:
        -   11.952371597290039
    /model.22/cv3.1/cv3.1.0/act/Mul_output_0:
        qtype: asymmetric_quantized
        qmethod: layer
        dtype: int8
        min:
        -   -0.27846458554267883
        max:
        -   11.95229434967041
        scale:
        -   0.04796376053024741
        zero_point:
        -   -122
        ori_min:
        -   -0.27846458554267883
        ori_max:
        -   11.95229434967041
    /model.22/cv3.1/cv3.1.1/conv/Conv_output_0:
        qtype: asymmetric_quantized
        qmethod: layer
        dtype: int8
        min:
        -   -62.88654327392578
        max:
        -   86.78311157226562
        scale:
        -   0.5869398229262408
        zero_point:
        -   -21
        ori_min:
        -   -62.88654327392578
        ori_max:
        -   86.78311157226562
    /model.22/cv3.1/cv3.1.1/act/Mul_output_0:
        qtype: asymmetric_quantized
        qmethod: layer
        dtype: int8
        min:
        -   -0.27846458554267883
        max:
        -   86.78311157226562
        scale:
        -   0.3414179457168953
        zero_point:
        -   -127
        ori_min:
        -   -0.27846458554267883
        ori_max:
        -   86.78311157226562
    /model.22/cv3.1/cv3.1.2/Conv_output_0:
        qtype: asymmetric_quantized
        qmethod: layer
        dtype: int8
        min:
        -   -8.969922065734863
        max:
        -   2.733949661254883
        scale:
        -   0.045897536184273516
        zero_point:
        -   67
        ori_min:
        -   -53.738014221191406
        ori_max:
        -   2.733949661254883
    /model.22/Concat_1_output_0:
        qtype: asymmetric_quantized
        qmethod: layer
        dtype: int8
        min:
        -   -8.969922065734863
        max:
        -   14.343157768249512
        scale:
        -   0.09142384248621324
        zero_point:
        -   -30
        ori_min:
        -   -53.738014221191406
        ori_max:
        -   14.343157768249512
    /model.22/Reshape_1_output_0_shape4_/model.22/Concat_3:
        qtype: asymmetric_quantized
        qmethod: layer
        dtype: int8
        min:
        -   -8.969922065734863
        max:
        -   14.343157768249512
        scale:
        -   0.09142384248621324
        zero_point:
        -   -30
        ori_min:
        -   -53.738014221191406
        ori_max:
        -   14.343157768249512
    /model.22/cv2.0/cv2.0.0/conv/Conv_output_0:
        qtype: asymmetric_quantized
        qmethod: layer
        dtype: int8
        min:
        -   -16.16432762145996
        max:
        -   11.329608917236328
        scale:
        -   0.10781935897527957
        zero_point:
        -   22
        ori_min:
        -   -16.16432762145996
        ori_max:
        -   11.329608917236328
    /model.22/cv2.0/cv2.0.0/act/Mul_output_0:
        qtype: asymmetric_quantized
        qmethod: layer
        dtype: int8
        min:
        -   -0.27846458554267883
        max:
        -   11.329472541809082
        scale:
        -   0.04552132206804612
        zero_point:
        -   -122
        ori_min:
        -   -0.27846458554267883
        ori_max:
        -   11.329472541809082
    /model.22/cv2.0/cv2.0.1/conv/Conv_output_0:
        qtype: asymmetric_quantized
        qmethod: layer
        dtype: int8
        min:
        -   -33.67936706542969
        max:
        -   59.32356262207031
        scale:
        -   0.36471737132352944
        zero_point:
        -   -36
        ori_min:
        -   -33.67936706542969
        ori_max:
        -   59.32356262207031
    /model.22/cv2.0/cv2.0.1/act/Mul_output_0:
        qtype: asymmetric_quantized
        qmethod: layer
        dtype: int8
        min:
        -   -0.27846458554267883
        max:
        -   59.32356262207031
        scale:
        -   0.23373344002985486
        zero_point:
        -   -127
        ori_min:
        -   -0.27846458554267883
        ori_max:
        -   59.32356262207031
    /model.22/cv2.0/cv2.0.2/Conv_output_0:
        qtype: asymmetric_quantized
        qmethod: layer
        dtype: int8
        min:
        -   -8.969922065734863
        max:
        -   19.84749984741211
        scale:
        -   0.11300949769861558
        zero_point:
        -   -49
        ori_min:
        -   -8.969922065734863
        ori_max:
        -   19.84749984741211
    /model.22/cv3.0/cv3.0.0/conv/Conv_output_0:
        qtype: asymmetric_quantized
        qmethod: layer
        dtype: int8
        min:
        -   -19.15747833251953
        max:
        -   8.962398529052734
        scale:
        -   0.11027402690812653
        zero_point:
        -   46
        ori_min:
        -   -19.15747833251953
        ori_max:
        -   8.962398529052734
    /model.22/cv3.0/cv3.0.0/act/Mul_output_0:
        qtype: asymmetric_quantized
        qmethod: layer
        dtype: int8
        min:
        -   -0.27846458554267883
        max:
        -   8.961250305175781
        scale:
        -   0.036234176042033175
        zero_point:
        -   -120
        ori_min:
        -   -0.27846458554267883
        ori_max:
        -   8.961250305175781
    /model.22/cv3.0/cv3.0.1/conv/Conv_output_0:
        qtype: asymmetric_quantized
        qmethod: layer
        dtype: int8
        min:
        -   -103.25765228271484
        max:
        -   105.19197845458984
        scale:
        -   0.8174495323031556
        zero_point:
        -   -2
        ori_min:
        -   -103.25765228271484
        ori_max:
        -   105.19197845458984
    /model.22/cv3.0/cv3.0.1/act/Mul_output_0:
        qtype: asymmetric_quantized
        qmethod: layer
        dtype: int8
        min:
        -   -0.27846458554267883
        max:
        -   105.19197845458984
        scale:
        -   0.4136095805495393
        zero_point:
        -   -127
        ori_min:
        -   -0.27846458554267883
        ori_max:
        -   105.19197845458984
    /model.22/cv3.0/cv3.0.2/Conv_output_0:
        qtype: asymmetric_quantized
        qmethod: layer
        dtype: int8
        min:
        -   -8.969922065734863
        max:
        -   1.7776126861572266
        scale:
        -   0.042147195105459175
        zero_point:
        -   85
        ori_min:
        -   -38.44826126098633
        ori_max:
        -   1.7776126861572266
    /model.22/Concat_output_0:
        qtype: asymmetric_quantized
        qmethod: layer
        dtype: int8
        min:
        -   -8.969922065734863
        max:
        -   19.84749984741211
        scale:
        -   0.11300949769861558
        zero_point:
        -   -49
        ori_min:
        -   -38.44826126098633
        ori_max:
        -   19.84749984741211
    /model.22/Reshape_output_0_shape4_/model.22/Concat_3:
        qtype: asymmetric_quantized
        qmethod: layer
        dtype: int8
        min:
        -   -8.969922065734863
        max:
        -   19.84749984741211
        scale:
        -   0.11300949769861558
        zero_point:
        -   -49
        ori_min:
        -   -38.44826126098633
        ori_max:
        -   19.84749984741211
    /model.22/Concat_3_output_0:
        qtype: asymmetric_quantized
        qmethod: layer
        dtype: int8
        min:
        -   -8.969922065734863
        max:
        -   19.84749984741211
        scale:
        -   0.11300949769861558
        zero_point:
        -   -49
        ori_min:
        -   -53.738014221191406
        ori_max:
        -   19.84749984741211
    /model.22/Split_output_0_shape4:
        qtype: asymmetric_quantized
        qmethod: layer
        dtype: int8
        min:
        -   -8.969922065734863
        max:
        -   19.84749984741211
        scale:
        -   0.11300949769861558
        zero_point:
        -   -49
        ori_min:
        -   -8.969922065734863
        ori_max:
        -   19.84749984741211
    /model.22/Split_output_1:
        qtype: asymmetric_quantized
        qmethod: layer
        dtype: int8
        min:
        -   -7.0
        max:
        -   3.464352607727051
        scale:
        -   0.041036676893047255
        zero_point:
        -   43
        ori_min:
        -   -53.738014221191406
        ori_max:
        -   3.464352607727051
    /model.22/dfl/Reshape_output_0:
        qtype: asymmetric_quantized
        qmethod: layer
        dtype: int8
        min:
        -   -8.969922065734863
        max:
        -   19.84749984741211
        scale:
        -   0.11300949769861558
        zero_point:
        -   -49
        ori_min:
        -   -8.969922065734863
        ori_max:
        -   19.84749984741211
    /model.22/dfl/Softmax_pre_tp:
        qtype: asymmetric_quantized
        qmethod: layer
        dtype: int8
        min:
        -   -8.969922065734863
        max:
        -   19.84749984741211
        scale:
        -   0.11300949769861558
        zero_point:
        -   -49
        ori_min:
        -   -8.969922065734863
        ori_max:
        -   19.84749984741211
    /model.22/dfl/Softmax_new:
        qtype: asymmetric_quantized
        qmethod: layer
        dtype: int8
        min:
        -   0.0
        max:
        -   0.9627894163131714
        scale:
        -   0.003775644769855574
        zero_point:
        -   -128
        ori_min:
        -   2.298773497944051e-11
        ori_max:
        -   0.9627894163131714
    /model.22/dfl/conv/Conv_output_0:
        qtype: asymmetric_quantized
        qmethod: layer
        dtype: int8
        min:
        -   0.0
        max:
        -   14.231024742126465
        scale:
        -   0.055807940165201825
        zero_point:
        -   -128
        ori_min:
        -   0.03757607191801071
        ori_max:
        -   14.231024742126465
    /model.22/dfl/Reshape_1_output_0_shape4_/model.22/Slice_2split:
        qtype: asymmetric_quantized
        qmethod: layer
        dtype: int8
        min:
        -   0.0
        max:
        -   14.231024742126465
        scale:
        -   0.055807940165201825
        zero_point:
        -   -128
        ori_min:
        -   0.03757607191801071
        ori_max:
        -   14.231024742126465
    /model.22/dfl/Reshape_1_output_0_shape4_/model.22/Slice_2split_conv_/model.22/Slice_2split:
        qtype: asymmetric_quantized
        qmethod: layer
        dtype: int8
        min:
        -   0.0
        max:
        -   14.231024742126465
        scale:
        -   0.055807940165201825
        zero_point:
        -   -128
        ori_min:
        -   0.0
        ori_max:
        -   14.231024742126465
    /model.22/Slice_output_0_shape4_before_conv:
        qtype: asymmetric_quantized
        qmethod: layer
        dtype: int8
        min:
        -   0.0
        max:
        -   14.231024742126465
        scale:
        -   0.055807940165201825
        zero_point:
        -   -128
        ori_min:
        -   0.0
        ori_max:
        -   14.231024742126465
    /model.22/Slice_1_output_0:
        qtype: asymmetric_quantized
        qmethod: layer
        dtype: int8
        min:
        -   0.0
        max:
        -   14.004961967468262
        scale:
        -   0.05492141948026769
        zero_point:
        -   -128
        ori_min:
        -   0.03757607191801071
        ori_max:
        -   14.004961967468262
    /model.22/Slice_output_0:
        qtype: asymmetric_quantized
        qmethod: layer
        dtype: int8
        min:
        -   0.0
        max:
        -   14.231024742126465
        scale:
        -   0.055807940165201825
        zero_point:
        -   -128
        ori_min:
        -   0.048999447375535965
        ori_max:
        -   14.231024742126465
    /model.22/Sub_output_0:
        qtype: asymmetric_quantized
        qmethod: layer
        dtype: int8
        min:
        -   -4.675197601318359
        max:
        -   79.41108703613281
        scale:
        -   0.32975013583314183
        zero_point:
        -   -114
        ori_min:
        -   -4.675197601318359
        ori_max:
        -   79.41108703613281
    /model.22/Add_1_output_0:
        qtype: asymmetric_quantized
        qmethod: layer
        dtype: int8
        min:
        -   0.0
        max:
        -   81.57515716552734
        scale:
        -   0.3199025771197151
        zero_point:
        -   -128
        ori_min:
        -   0.5838167667388916
        ori_max:
        -   81.57515716552734
    /model.22/Sub_1_output_0:
        qtype: asymmetric_quantized
        qmethod: layer
        dtype: int8
        min:
        -   0.0
        max:
        -   27.472393035888672
        scale:
        -   0.10773487465054381
        zero_point:
        -   -128
        ori_min:
        -   0.3784027099609375
        ori_max:
        -   27.472393035888672
    /model.22/Concat_4_swap_concat_reshape_i1_out:
        qtype: asymmetric_quantized
        qmethod: layer
        dtype: int8
        min:
        -   0.0
        max:
        -   27.472393035888672
        scale:
        -   0.10773487465054381
        zero_point:
        -   -128
        ori_min:
        -   0.3784027099609375
        ori_max:
        -   27.472393035888672
    /model.22/Add_2_output_0:
        qtype: asymmetric_quantized
        qmethod: layer
        dtype: int8
        min:
        -   -0.7073217630386353
        max:
        -   159.4213104248047
        scale:
        -   0.6279554203444836
        zero_point:
        -   -127
        ori_min:
        -   -0.7073217630386353
        ori_max:
        -   159.4213104248047
    /model.22/Div_1_output_0:
        qtype: asymmetric_quantized
        qmethod: layer
        dtype: int8
        min:
        -   -0.3536608815193176
        max:
        -   79.71065521240234
        scale:
        -   0.3139777101722418
        zero_point:
        -   -127
        ori_min:
        -   -0.3536608815193176
        ori_max:
        -   79.71065521240234
    /model.22/Concat_4_swap_concat_reshape_i0_out:
        qtype: asymmetric_quantized
        qmethod: layer
        dtype: int8
        min:
        -   -0.3536608815193176
        max:
        -   79.71065521240234
        scale:
        -   0.3139777101722418
        zero_point:
        -   -127
        ori_min:
        -   -0.3536608815193176
        ori_max:
        -   79.71065521240234
    /model.22/Concat_4_output_0_shape4:
        qtype: asymmetric_quantized
        qmethod: layer
        dtype: int8
        min:
        -   -0.3536608815193176
        max:
        -   79.71065521240234
        scale:
        -   0.3139777101722418
        zero_point:
        -   -127
        ori_min:
        -   -0.3536608815193176
        ori_max:
        -   79.71065521240234
    /model.22/Mul_2_output_0_before:
        qtype: asymmetric_quantized
        qmethod: layer
        dtype: int8
        min:
        -   -11.317148208618164
        max:
        -   646.3682861328125
        scale:
        -   2.579158566044826
        zero_point:
        -   -124
        ori_min:
        -   -11.317148208618164
        ori_max:
        -   646.3682861328125
    /model.22/Sigmoid_output_0:
        qtype: asymmetric_quantized
        qmethod: layer
        dtype: int8
        min:
        -   0.0
        max:
        -   0.9696563482284546
        scale:
        -   0.0038025739146213904
        zero_point:
        -   -128
        ori_min:
        -   0.0
        ori_max:
        -   0.9696563482284546
    /model.22/Concat_5_swap_concat_reshape_i1_out:
        qtype: asymmetric_quantized
        qmethod: layer
        dtype: int8
        min:
        -   0.0
        max:
        -   0.9696563482284546
        scale:
        -   0.0038025739146213904
        zero_point:
        -   -128
        ori_min:
        -   0.0
        ori_max:
        -   0.9696563482284546
    output0_shape4:
        qtype: asymmetric_quantized
        qmethod: layer
        dtype: int8
        min:
        -   -11.317148208618164
        max:
        -   646.3682861328125
        scale:
        -   2.579158566044826
        zero_point:
        -   -124
        ori_min:
        -   -11.317148208618164
        ori_max:
        -   646.3682861328125
    output0:
        qtype: asymmetric_quantized
        qmethod: layer
        dtype: float32
        min:
        -   -11.317148208618164
        max:
        -   646.3682861328125
        scale: []
        zero_point: []
        ori_min:
        -   -11.317148208618164
        ori_max:
        -   646.3682861328125
    /model.22/Constant_9_output_0:
        qtype: symmetric_quantized
        qmethod: layer
        dtype: int32
        min:
        -   -79.5
        max:
        -   79.5
        scale:
        -   3.702007234096527e-08
        zero_point:
        -   0
        ori_min:
        -   0.5
        ori_max:
        -   79.5
    /model.22/Constant_10_output_0:
        qtype: symmetric_quantized
        qmethod: layer
        dtype: int32
        min:
        -   -79.5
        max:
        -   79.5
        scale:
        -   3.702007234096527e-08
        zero_point:
        -   0
        ori_min:
        -   0.5
        ori_max:
        -   79.5
    /model.22/Constant_12_output_0:
        qtype: asymmetric_quantized
        qmethod: layer
        dtype: int16
        min:
        -   0.0
        max:
        -   32.0
        scale:
        -   0.0004882887006942855
        zero_point:
        -   -32768
        ori_min:
        -   8.0
        ori_max:
        -   32.0
    images_int8:
        qtype: asymmetric_quantized
        qmethod: layer
        dtype: int8
        min:
        -   0.0
        max:
        -   1.0
        scale:
        -   0.00392156862745098
        zero_point:
        -   -128
        ori_min:
        -   0.0
        ori_max:
        -   1.0
    output0_int8:
        qtype: asymmetric_quantized
        qmethod: layer
        dtype: int8
        min:
        -   -11.317148208618164
        max:
        -   646.3682861328125
        scale:
        -   2.579158566044826
        zero_point:
        -   -124
        ori_min:
        -   -11.317148208618164
        ori_max:
        -   646.3682861328125
