custom_quantize_layers:
    /model.0/act/Mul_output_0: float16
    /model.1/conv/Conv_output_0: float16
    /model.1/act/Mul_output_0: float16
    /model.2/cv1/conv/Conv_output_0: float16
    /model.2/m.0/cv1/act/Mul_output_0: float16
    /model.2/m.0/cv2/conv/Conv_output_0: float16
    /model.2/m.0/cv2/act/Mul_output_0: float16
    /model.2/m.0/Add_output_0: float16
    /model.3/act/Mul_output_0: float16
    /model.4/cv1/conv/Conv_output_0: float16
    /model.6/m.1/cv2/act/Mul_output_0: float16
    /model.6/m.1/Add_output_0: float16
    /model.8/Split_output_0: float16
    /model.8/Concat_output_0: float16
    /model.8/m.0/cv2/act/Mul_output_0: float16
    /model.8/m.0/Add_output_0: float16
    /model.15/m.0/cv2/act/Mul_output_0: float16
    /model.15/Concat_output_0: float16
    /model.15/cv2/conv/Conv_output_0: float16
    /model.18/m.0/cv2/act/Mul_output_0: float16
    /model.18/Concat_output_0: float16
    /model.21/m.0/cv2/act/Mul_output_0: float16
    /model.21/Concat_output_0: float16
    /model.22/cv2.2/cv2.2.0/act/Mul_output_0: float16
    /model.22/cv2.2/cv2.2.1/conv/Conv_output_0: float16
    /model.22/cv2.2/cv2.2.1/act/Mul_output_0: float16
    /model.22/cv2.2/cv2.2.2/Conv_output_0: float16
    /model.22/cv3.2/cv3.2.0/act/Mul_output_0: float16
    /model.22/cv3.2/cv3.2.1/conv/Conv_output_0: float16
    /model.22/cv3.2/cv3.2.1/act/Mul_output_0: float16
    /model.22/cv3.2/cv3.2.2/Conv_output_0: float16
    /model.22/cv2.1/cv2.1.0/act/Mul_output_0: float16
    /model.22/cv2.1/cv2.1.1/conv/Conv_output_0: float16
    /model.22/cv2.1/cv2.1.1/act/Mul_output_0: float16
    /model.22/cv2.1/cv2.1.2/Conv_output_0: float16
    /model.22/cv3.1/cv3.1.1/act/Mul_output_0: float16
    /model.22/cv3.1/cv3.1.2/Conv_output_0: float16
    /model.22/cv2.0/cv2.0.1/act/Mul_output_0: float16
    /model.22/cv2.0/cv2.0.2/Conv_output_0: float16
    /model.22/cv3.0/cv3.0.1/act/Mul_output_0: float16
    /model.22/cv3.0/cv3.0.2/Conv_output_0: float16
    /model.22/dfl/Softmax_new: float16
    /model.22/dfl/conv/Conv_output_0: float16
    /model.22/Concat_4_output_0_shape4: float16
    /model.22/Mul_2_output_0_before: float16
    output0_shape4: float16
    /model.22/Sigmoid_output_0: float16
    /model.22/Concat_5_swap_concat_reshape_i1_out: float16
    output0_int8: float16
    output0: float16
quantize_parameters:
    images:
        qtype: asymmetric_quantized
        qmethod: layer
        dtype: float32
        min:
        -   0.0
        max:
        -   1.0
        scale: []
        zero_point: []
        ori_min:
        -   0.0
        ori_max:
        -   1.0
    /model.0/conv/Conv_output_0:
        qtype: asymmetric_quantized
        qmethod: layer
        dtype: int8
        min:
        -   -44.96997833251953
        max:
        -   46.35532760620117
        scale:
        -   0.35813845466164984
        zero_point:
        -   -2
        ori_min:
        -   -44.96997833251953
        ori_max:
        -   46.35532760620117
    /model.0/act/Mul_output_0:
        qtype: asymmetric_quantized
        qmethod: layer
        dtype: int8
        min:
        -   -0.27846458554267883
        max:
        -   46.35532760620117
        scale:
        -   0.18287761643821118
        zero_point:
        -   -126
        ori_min:
        -   -0.27846458554267883
        ori_max:
        -   46.35532760620117
    /model.1/conv/Conv_output_0:
        qtype: asymmetric_quantized
        qmethod: layer
        dtype: int8
        min:
        -   -106.80242156982422
        max:
        -   114.35545349121094
        scale:
        -   0.867285784553079
        zero_point:
        -   -5
        ori_min:
        -   -106.80242156982422
        ori_max:
        -   114.35545349121094
    /model.1/act/Mul_output_0:
        qtype: asymmetric_quantized
        qmethod: layer
        dtype: int8
        min:
        -   -0.27846458554267883
        max:
        -   114.35545349121094
        scale:
        -   0.44954477677158283
        zero_point:
        -   -127
        ori_min:
        -   -0.27846458554267883
        ori_max:
        -   114.35545349121094
    /model.2/cv1/conv/Conv_output_0:
        qtype: asymmetric_quantized
        qmethod: layer
        dtype: int8
        min:
        -   -92.95369720458984
        max:
        -   33.60688018798828
        scale:
        -   0.49631598977481617
        zero_point:
        -   59
        ori_min:
        -   -92.95369720458984
        ori_max:
        -   33.60688018798828
    /model.2/cv1/act/Mul_output_0:
        qtype: asymmetric_quantized
        qmethod: layer
        dtype: int8
        min:
        -   -0.27846458554267883
        max:
        -   33.60688018798828
        scale:
        -   0.13288370499423907
        zero_point:
        -   -126
        ori_min:
        -   -0.27846458554267883
        ori_max:
        -   33.60688018798828
    /model.2/Split_output_0:
        qtype: asymmetric_quantized
        qmethod: layer
        dtype: int8
        min:
        -   -0.27846458554267883
        max:
        -   33.60688018798828
        scale:
        -   0.13288370499423907
        zero_point:
        -   -126
        ori_min:
        -   -0.27846458554267883
        ori_max:
        -   33.60688018798828
    /model.2/Split_output_1:
        qtype: asymmetric_quantized
        qmethod: layer
        dtype: int8
        min:
        -   -0.27846458554267883
        max:
        -   17.72576332092285
        scale:
        -   0.07060481531947267
        zero_point:
        -   -124
        ori_min:
        -   -0.27846458554267883
        ori_max:
        -   17.72576332092285
    /model.2/m.0/cv1/conv/Conv_output_0:
        qtype: asymmetric_quantized
        qmethod: layer
        dtype: int8
        min:
        -   -37.38469696044922
        max:
        -   32.641719818115234
        scale:
        -   0.2746133991316253
        zero_point:
        -   8
        ori_min:
        -   -37.38469696044922
        ori_max:
        -   32.641719818115234
    /model.2/m.0/cv1/act/Mul_output_0:
        qtype: asymmetric_quantized
        qmethod: layer
        dtype: int8
        min:
        -   -0.27846458554267883
        max:
        -   32.641719818115234
        scale:
        -   0.12909876236728593
        zero_point:
        -   -126
        ori_min:
        -   -0.27846458554267883
        ori_max:
        -   32.641719818115234
    /model.2/m.0/cv2/conv/Conv_output_0:
        qtype: asymmetric_quantized
        qmethod: layer
        dtype: int8
        min:
        -   -40.606178283691406
        max:
        -   33.29545211791992
        scale:
        -   0.2898103153004366
        zero_point:
        -   12
        ori_min:
        -   -40.606178283691406
        ori_max:
        -   33.29545211791992
    /model.2/m.0/cv2/act/Mul_output_0:
        qtype: asymmetric_quantized
        qmethod: layer
        dtype: int8
        min:
        -   -0.27846458554267883
        max:
        -   33.29545211791992
        scale:
        -   0.13166241844495138
        zero_point:
        -   -126
        ori_min:
        -   -0.27846458554267883
        ori_max:
        -   33.29545211791992
    /model.2/m.0/Add_output_0:
        qtype: asymmetric_quantized
        qmethod: layer
        dtype: int8
        min:
        -   -0.5569287538528442
        max:
        -   38.65306854248047
        scale:
        -   0.1537646952797385
        zero_point:
        -   -124
        ori_min:
        -   -0.5569287538528442
        ori_max:
        -   38.65306854248047
    /model.2/Concat_output_0:
        qtype: asymmetric_quantized
        qmethod: layer
        dtype: int8
        min:
        -   -0.5569287538528442
        max:
        -   38.65306854248047
        scale:
        -   0.1537646952797385
        zero_point:
        -   -124
        ori_min:
        -   -0.5569287538528442
        ori_max:
        -   38.65306854248047
    /model.2/cv2/conv/Conv_output_0:
        qtype: asymmetric_quantized
        qmethod: layer
        dtype: int8
        min:
        -   -24.507051467895508
        max:
        -   10.234660148620605
        scale:
        -   0.13624200633927888
        zero_point:
        -   52
        ori_min:
        -   -24.507051467895508
        ori_max:
        -   10.234660148620605
    /model.2/cv2/act/Mul_output_0:
        qtype: asymmetric_quantized
        qmethod: layer
        dtype: int8
        min:
        -   -0.27846458554267883
        max:
        -   10.234292984008789
        scale:
        -   0.041226500272750856
        zero_point:
        -   -121
        ori_min:
        -   -0.27846458554267883
        ori_max:
        -   10.234292984008789
    /model.3/conv/Conv_output_0:
        qtype: asymmetric_quantized
        qmethod: layer
        dtype: int8
        min:
        -   -11.616609573364258
        max:
        -   8.065902709960938
        scale:
        -   0.07718632267970665
        zero_point:
        -   23
        ori_min:
        -   -11.616609573364258
        ori_max:
        -   8.065902709960938
    /model.3/act/Mul_output_0:
        qtype: asymmetric_quantized
        qmethod: layer
        dtype: int8
        min:
        -   -0.27846458554267883
        max:
        -   8.063369750976562
        scale:
        -   0.03271307582948722
        zero_point:
        -   -119
        ori_min:
        -   -0.27846458554267883
        ori_max:
        -   8.063369750976562
    /model.4/cv1/conv/Conv_output_0:
        qtype: asymmetric_quantized
        qmethod: layer
        dtype: int8
        min:
        -   -11.96615219116211
        max:
        -   7.316243648529053
        scale:
        -   0.07561723858702417
        zero_point:
        -   30
        ori_min:
        -   -11.96615219116211
        ori_max:
        -   7.316243648529053
    /model.4/cv1/act/Mul_output_0:
        qtype: asymmetric_quantized
        qmethod: layer
        dtype: int8
        min:
        -   -0.27846458554267883
        max:
        -   7.3113837242126465
        scale:
        -   0.029764111018648336
        zero_point:
        -   -119
        ori_min:
        -   -0.27846458554267883
        ori_max:
        -   7.3113837242126465
    /model.4/Split_output_0:
        qtype: asymmetric_quantized
        qmethod: layer
        dtype: int8
        min:
        -   -0.27846458554267883
        max:
        -   7.3113837242126465
        scale:
        -   0.029764111018648336
        zero_point:
        -   -119
        ori_min:
        -   -0.27846458554267883
        ori_max:
        -   7.3113837242126465
    /model.4/Split_output_1:
        qtype: asymmetric_quantized
        qmethod: layer
        dtype: int8
        min:
        -   -0.27846458554267883
        max:
        -   3.9418513774871826
        scale:
        -   0.016550258678548476
        zero_point:
        -   -111
        ori_min:
        -   -0.27846458554267883
        ori_max:
        -   3.9418513774871826
    /model.4/m.0/cv1/conv/Conv_output_0:
        qtype: asymmetric_quantized
        qmethod: layer
        dtype: int8
        min:
        -   -6.793388366699219
        max:
        -   5.289605140686035
        scale:
        -   0.0473842882642559
        zero_point:
        -   15
        ori_min:
        -   -6.793388366699219
        ori_max:
        -   5.289605140686035
    /model.4/m.0/cv1/act/Mul_output_0:
        qtype: asymmetric_quantized
        qmethod: layer
        dtype: int8
        min:
        -   -0.27846458554267883
        max:
        -   5.263059616088867
        scale:
        -   0.02173146745737861
        zero_point:
        -   -115
        ori_min:
        -   -0.27846458554267883
        ori_max:
        -   5.263059616088867
    /model.4/m.0/cv2/conv/Conv_output_0:
        qtype: asymmetric_quantized
        qmethod: layer
        dtype: int8
        min:
        -   -8.135576248168945
        max:
        -   6.461913108825684
        scale:
        -   0.05724505630193972
        zero_point:
        -   14
        ori_min:
        -   -8.135576248168945
        ori_max:
        -   6.461913108825684
    /model.4/m.0/cv2/act/Mul_output_0:
        qtype: asymmetric_quantized
        qmethod: layer
        dtype: int8
        min:
        -   -0.27846458554267883
        max:
        -   6.451837062835693
        scale:
        -   0.026393339797562244
        zero_point:
        -   -117
        ori_min:
        -   -0.27846458554267883
        ori_max:
        -   6.451837062835693
    /model.4/m.0/Add_output_0:
        qtype: asymmetric_quantized
        qmethod: layer
        dtype: int8
        min:
        -   -0.5569287538528442
        max:
        -   7.60214900970459
        scale:
        -   0.03199638338649974
        zero_point:
        -   -111
        ori_min:
        -   -0.5569287538528442
        ori_max:
        -   7.60214900970459
    /model.4/m.1/cv1/conv/Conv_output_0:
        qtype: asymmetric_quantized
        qmethod: layer
        dtype: int8
        min:
        -   -8.331722259521484
        max:
        -   5.139543056488037
        scale:
        -   0.05282849143533146
        zero_point:
        -   30
        ori_min:
        -   -8.331722259521484
        ori_max:
        -   5.139543056488037
    /model.4/m.1/cv1/act/Mul_output_0:
        qtype: asymmetric_quantized
        qmethod: layer
        dtype: int8
        min:
        -   -0.27846458554267883
        max:
        -   5.1095991134643555
        scale:
        -   0.02112966156473347
        zero_point:
        -   -115
        ori_min:
        -   -0.27846458554267883
        ori_max:
        -   5.1095991134643555
    /model.4/m.1/cv2/conv/Conv_output_0:
        qtype: asymmetric_quantized
        qmethod: layer
        dtype: int8
        min:
        -   -13.310201644897461
        max:
        -   10.365058898925781
        scale:
        -   0.09284415899538527
        zero_point:
        -   15
        ori_min:
        -   -13.310201644897461
        ori_max:
        -   10.365058898925781
    /model.4/m.1/cv2/act/Mul_output_0:
        qtype: asymmetric_quantized
        qmethod: layer
        dtype: int8
        min:
        -   -0.27846458554267883
        max:
        -   10.36473274230957
        scale:
        -   0.04173802873667549
        zero_point:
        -   -121
        ori_min:
        -   -0.27846458554267883
        ori_max:
        -   10.36473274230957
    /model.4/m.1/Add_output_0:
        qtype: asymmetric_quantized
        qmethod: layer
        dtype: int8
        min:
        -   -0.8353736400604248
        max:
        -   11.62924575805664
        scale:
        -   0.04888086038477281
        zero_point:
        -   -111
        ori_min:
        -   -0.8353736400604248
        ori_max:
        -   11.62924575805664
    /model.4/Concat_output_0:
        qtype: asymmetric_quantized
        qmethod: layer
        dtype: int8
        min:
        -   -0.8353736400604248
        max:
        -   11.62924575805664
        scale:
        -   0.04888086038477281
        zero_point:
        -   -111
        ori_min:
        -   -0.8353736400604248
        ori_max:
        -   11.62924575805664
    /model.4/cv2/conv/Conv_output_0:
        qtype: asymmetric_quantized
        qmethod: layer
        dtype: int8
        min:
        -   -9.96937370300293
        max:
        -   9.683838844299316
        scale:
        -   0.07707142175412646
        zero_point:
        -   1
        ori_min:
        -   -9.96937370300293
        ori_max:
        -   9.683838844299316
    /model.4/cv2/act/Mul_output_0:
        qtype: asymmetric_quantized
        qmethod: layer
        dtype: int8
        min:
        -   -0.27846458554267883
        max:
        -   9.683236122131348
        scale:
        -   0.03906549297127069
        zero_point:
        -   -121
        ori_min:
        -   -0.27846458554267883
        ori_max:
        -   9.683236122131348
    /model.5/conv/Conv_output_0:
        qtype: asymmetric_quantized
        qmethod: layer
        dtype: int8
        min:
        -   -16.58733367919922
        max:
        -   8.22667407989502
        scale:
        -   0.09730983434938917
        zero_point:
        -   42
        ori_min:
        -   -16.58733367919922
        ori_max:
        -   8.22667407989502
    /model.5/act/Mul_output_0:
        qtype: asymmetric_quantized
        qmethod: layer
        dtype: int8
        min:
        -   -0.27846458554267883
        max:
        -   8.224474906921387
        scale:
        -   0.03334486075476104
        zero_point:
        -   -120
        ori_min:
        -   -0.27846458554267883
        ori_max:
        -   8.224474906921387
    /model.6/cv1/conv/Conv_output_0:
        qtype: asymmetric_quantized
        qmethod: layer
        dtype: int8
        min:
        -   -12.207002639770508
        max:
        -   8.38968563079834
        scale:
        -   0.08077132655125038
        zero_point:
        -   23
        ori_min:
        -   -12.207002639770508
        ori_max:
        -   8.38968563079834
    /model.6/cv1/act/Mul_output_0:
        qtype: asymmetric_quantized
        qmethod: layer
        dtype: int8
        min:
        -   -0.27846458554267883
        max:
        -   8.38778018951416
        scale:
        -   0.03398527362767388
        zero_point:
        -   -120
        ori_min:
        -   -0.27846458554267883
        ori_max:
        -   8.38778018951416
    /model.6/Split_output_0:
        qtype: asymmetric_quantized
        qmethod: layer
        dtype: int8
        min:
        -   -0.27846458554267883
        max:
        -   8.38778018951416
        scale:
        -   0.03398527362767388
        zero_point:
        -   -120
        ori_min:
        -   -0.27846458554267883
        ori_max:
        -   8.38778018951416
    /model.6/Split_output_1:
        qtype: asymmetric_quantized
        qmethod: layer
        dtype: int8
        min:
        -   -0.27846458554267883
        max:
        -   6.5652875900268555
        scale:
        -   0.02683824382576288
        zero_point:
        -   -118
        ori_min:
        -   -0.27846458554267883
        ori_max:
        -   6.5652875900268555
    /model.6/m.0/cv1/conv/Conv_output_0:
        qtype: asymmetric_quantized
        qmethod: layer
        dtype: int8
        min:
        -   -10.348523139953613
        max:
        -   8.20734977722168
        scale:
        -   0.07276812908696194
        zero_point:
        -   14
        ori_min:
        -   -10.348523139953613
        ori_max:
        -   8.20734977722168
    /model.6/m.0/cv1/act/Mul_output_0:
        qtype: asymmetric_quantized
        qmethod: layer
        dtype: int8
        min:
        -   -0.27846458554267883
        max:
        -   8.20511245727539
        scale:
        -   0.033268929579678704
        zero_point:
        -   -120
        ori_min:
        -   -0.27846458554267883
        ori_max:
        -   8.20511245727539
    /model.6/m.0/cv2/conv/Conv_output_0:
        qtype: asymmetric_quantized
        qmethod: layer
        dtype: int8
        min:
        -   -8.307084083557129
        max:
        -   6.384721279144287
        scale:
        -   0.057614922990985945
        zero_point:
        -   16
        ori_min:
        -   -8.307084083557129
        ori_max:
        -   6.384721279144287
    /model.6/m.0/cv2/act/Mul_output_0:
        qtype: asymmetric_quantized
        qmethod: layer
        dtype: int8
        min:
        -   -0.27846458554267883
        max:
        -   6.37396764755249
        scale:
        -   0.026087969541549683
        zero_point:
        -   -117
        ori_min:
        -   -0.27846458554267883
        ori_max:
        -   6.37396764755249
    /model.6/m.0/Add_output_0:
        qtype: asymmetric_quantized
        qmethod: layer
        dtype: int8
        min:
        -   -0.5569291114807129
        max:
        -   7.49293327331543
        scale:
        -   0.03156808778351428
        zero_point:
        -   -110
        ori_min:
        -   -0.5569291114807129
        ori_max:
        -   7.49293327331543
    /model.6/m.1/cv1/conv/Conv_output_0:
        qtype: asymmetric_quantized
        qmethod: layer
        dtype: int8
        min:
        -   -8.6242094039917
        max:
        -   10.776436805725098
        scale:
        -   0.07608096552830117
        zero_point:
        -   -15
        ori_min:
        -   -8.6242094039917
        ori_max:
        -   10.776436805725098
    /model.6/m.1/cv1/act/Mul_output_0:
        qtype: asymmetric_quantized
        qmethod: layer
        dtype: int8
        min:
        -   -0.27846458554267883
        max:
        -   10.776211738586426
        scale:
        -   0.043351671859329824
        zero_point:
        -   -122
        ori_min:
        -   -0.27846458554267883
        ori_max:
        -   10.776211738586426
    /model.6/m.1/cv2/conv/Conv_output_0:
        qtype: asymmetric_quantized
        qmethod: layer
        dtype: int8
        min:
        -   -14.933502197265625
        max:
        -   14.687040328979492
        scale:
        -   0.11615899029900045
        zero_point:
        -   1
        ori_min:
        -   -14.933502197265625
        ori_max:
        -   14.687040328979492
    /model.6/m.1/cv2/act/Mul_output_0:
        qtype: asymmetric_quantized
        qmethod: layer
        dtype: int8
        min:
        -   -0.27846458554267883
        max:
        -   14.687033653259277
        scale:
        -   0.05868822838745865
        zero_point:
        -   -123
        ori_min:
        -   -0.27846458554267883
        ori_max:
        -   14.687033653259277
    /model.6/m.1/Add_output_0:
        qtype: asymmetric_quantized
        qmethod: layer
        dtype: int8
        min:
        -   -0.835374116897583
        max:
        -   15.77113151550293
        scale:
        -   0.06512355149960986
        zero_point:
        -   -115
        ori_min:
        -   -0.835374116897583
        ori_max:
        -   15.77113151550293
    /model.6/Concat_output_0:
        qtype: asymmetric_quantized
        qmethod: layer
        dtype: int8
        min:
        -   -0.835374116897583
        max:
        -   15.77113151550293
        scale:
        -   0.06512355149960986
        zero_point:
        -   -115
        ori_min:
        -   -0.835374116897583
        ori_max:
        -   15.77113151550293
    /model.6/cv2/conv/Conv_output_0:
        qtype: asymmetric_quantized
        qmethod: layer
        dtype: int8
        min:
        -   -9.956772804260254
        max:
        -   10.340570449829102
        scale:
        -   0.07959742452584061
        zero_point:
        -   -3
        ori_min:
        -   -9.956772804260254
        ori_max:
        -   10.340570449829102
    /model.6/cv2/act/Mul_output_0:
        qtype: asymmetric_quantized
        qmethod: layer
        dtype: int8
        min:
        -   -0.27846458554267883
        max:
        -   10.34023666381836
        scale:
        -   0.04164196568376878
        zero_point:
        -   -121
        ori_min:
        -   -0.27846458554267883
        ori_max:
        -   10.34023666381836
    /model.7/conv/Conv_output_0:
        qtype: asymmetric_quantized
        qmethod: layer
        dtype: int8
        min:
        -   -11.544977188110352
        max:
        -   8.196651458740234
        scale:
        -   0.0774181515562768
        zero_point:
        -   21
        ori_min:
        -   -11.544977188110352
        ori_max:
        -   8.196651458740234
    /model.7/act/Mul_output_0:
        qtype: asymmetric_quantized
        qmethod: layer
        dtype: int8
        min:
        -   -0.27846458554267883
        max:
        -   8.194393157958984
        scale:
        -   0.03322689311177123
        zero_point:
        -   -120
        ori_min:
        -   -0.27846458554267883
        ori_max:
        -   8.194393157958984
    /model.8/cv1/conv/Conv_output_0:
        qtype: asymmetric_quantized
        qmethod: layer
        dtype: int8
        min:
        -   -13.860477447509766
        max:
        -   12.518689155578613
        scale:
        -   0.10344771216897404
        zero_point:
        -   6
        ori_min:
        -   -13.860477447509766
        ori_max:
        -   12.518689155578613
    /model.8/cv1/act/Mul_output_0:
        qtype: asymmetric_quantized
        qmethod: layer
        dtype: int8
        min:
        -   -0.27846458554267883
        max:
        -   12.51864242553711
        scale:
        -   0.05018473337678348
        zero_point:
        -   -122
        ori_min:
        -   -0.27846458554267883
        ori_max:
        -   12.51864242553711
    /model.8/Split_output_0:
        qtype: asymmetric_quantized
        qmethod: layer
        dtype: int8
        min:
        -   -0.27846458554267883
        max:
        -   12.51864242553711
        scale:
        -   0.05018473337678348
        zero_point:
        -   -122
        ori_min:
        -   -0.27846458554267883
        ori_max:
        -   12.51864242553711
    /model.8/Split_output_1:
        qtype: asymmetric_quantized
        qmethod: layer
        dtype: int8
        min:
        -   -0.27846458554267883
        max:
        -   7.929579257965088
        scale:
        -   0.032188407229442224
        zero_point:
        -   -119
        ori_min:
        -   -0.27846458554267883
        ori_max:
        -   7.929579257965088
    /model.8/m.0/cv1/conv/Conv_output_0:
        qtype: asymmetric_quantized
        qmethod: layer
        dtype: int8
        min:
        -   -11.502305030822754
        max:
        -   12.824268341064453
        scale:
        -   0.09539832694857728
        zero_point:
        -   -7
        ori_min:
        -   -11.502305030822754
        ori_max:
        -   12.824268341064453
    /model.8/m.0/cv1/act/Mul_output_0:
        qtype: asymmetric_quantized
        qmethod: layer
        dtype: int8
        min:
        -   -0.27846458554267883
        max:
        -   12.824233055114746
        scale:
        -   0.05138312800257814
        zero_point:
        -   -123
        ori_min:
        -   -0.27846458554267883
        ori_max:
        -   12.824233055114746
    /model.8/m.0/cv2/conv/Conv_output_0:
        qtype: asymmetric_quantized
        qmethod: layer
        dtype: int8
        min:
        -   -17.514986038208008
        max:
        -   16.656360626220703
        scale:
        -   0.13400528103697534
        zero_point:
        -   3
        ori_min:
        -   -17.514986038208008
        ori_max:
        -   16.656360626220703
    /model.8/m.0/cv2/act/Mul_output_0:
        qtype: asymmetric_quantized
        qmethod: layer
        dtype: int8
        min:
        -   -0.27846458554267883
        max:
        -   16.656360626220703
        scale:
        -   0.06641107926181719
        zero_point:
        -   -124
        ori_min:
        -   -0.27846458554267883
        ori_max:
        -   16.656360626220703
    /model.8/m.0/Add_output_0:
        qtype: asymmetric_quantized
        qmethod: layer
        dtype: int8
        min:
        -   -0.5569291114807129
        max:
        -   16.52969741821289
        scale:
        -   0.06700637854781805
        zero_point:
        -   -120
        ori_min:
        -   -0.5569291114807129
        ori_max:
        -   16.52969741821289
    /model.8/Concat_output_0:
        qtype: asymmetric_quantized
        qmethod: layer
        dtype: int8
        min:
        -   -0.5569291114807129
        max:
        -   16.52969741821289
        scale:
        -   0.06700637854781805
        zero_point:
        -   -120
        ori_min:
        -   -0.5569291114807129
        ori_max:
        -   16.52969741821289
    /model.8/cv2/conv/Conv_output_0:
        qtype: asymmetric_quantized
        qmethod: layer
        dtype: int8
        min:
        -   -12.262022972106934
        max:
        -   10.277871131896973
        scale:
        -   0.08839174158432904
        zero_point:
        -   11
        ori_min:
        -   -12.262022972106934
        ori_max:
        -   10.277871131896973
    /model.8/cv2/act/Mul_output_0:
        qtype: asymmetric_quantized
        qmethod: layer
        dtype: int8
        min:
        -   -0.27846458554267883
        max:
        -   10.277518272399902
        scale:
        -   0.04139601120761797
        zero_point:
        -   -121
        ori_min:
        -   -0.27846458554267883
        ori_max:
        -   10.277518272399902
    /model.9/cv1/conv/Conv_output_0:
        qtype: asymmetric_quantized
        qmethod: layer
        dtype: int8
        min:
        -   -6.542756080627441
        max:
        -   8.356253623962402
        scale:
        -   0.05842748903760723
        zero_point:
        -   -16
        ori_min:
        -   -6.542756080627441
        ori_max:
        -   8.356253623962402
    /model.9/cv1/act/Mul_output_0:
        qtype: asymmetric_quantized
        qmethod: layer
        dtype: int8
        min:
        -   -0.27846455574035645
        max:
        -   8.354290962219238
        scale:
        -   0.033853943207684686
        zero_point:
        -   -120
        ori_min:
        -   -0.27846455574035645
        ori_max:
        -   8.354290962219238
    /model.9/m/MaxPool_output_0:
        qtype: asymmetric_quantized
        qmethod: layer
        dtype: int8
        min:
        -   -0.27846455574035645
        max:
        -   8.354290962219238
        scale:
        -   0.033853943207684686
        zero_point:
        -   -120
        ori_min:
        -   -0.2755849361419678
        ori_max:
        -   8.354290962219238
    /model.9/m_1/MaxPool_output_0:
        qtype: asymmetric_quantized
        qmethod: layer
        dtype: int8
        min:
        -   -0.27846455574035645
        max:
        -   8.354290962219238
        scale:
        -   0.033853943207684686
        zero_point:
        -   -120
        ori_min:
        -   -0.27166467905044556
        ori_max:
        -   8.354290962219238
    /model.9/m_2/MaxPool_output_0:
        qtype: asymmetric_quantized
        qmethod: layer
        dtype: int8
        min:
        -   -0.27846455574035645
        max:
        -   8.354290962219238
        scale:
        -   0.033853943207684686
        zero_point:
        -   -120
        ori_min:
        -   -0.2686333954334259
        ori_max:
        -   8.354290962219238
    /model.9/Concat_output_0:
        qtype: asymmetric_quantized
        qmethod: layer
        dtype: int8
        min:
        -   -0.27846455574035645
        max:
        -   8.354290962219238
        scale:
        -   0.033853943207684686
        zero_point:
        -   -120
        ori_min:
        -   -0.27846455574035645
        ori_max:
        -   8.354290962219238
    /model.9/cv2/conv/Conv_output_0:
        qtype: asymmetric_quantized
        qmethod: layer
        dtype: int8
        min:
        -   -9.519294738769531
        max:
        -   10.9275541305542
        scale:
        -   0.0801837210561715
        zero_point:
        -   -9
        ori_min:
        -   -9.519294738769531
        ori_max:
        -   10.9275541305542
    /model.9/cv2/act/Mul_output_0:
        qtype: asymmetric_quantized
        qmethod: layer
        dtype: int8
        min:
        -   -0.27846458554267883
        max:
        -   10.92735767364502
        scale:
        -   0.043944401016422344
        zero_point:
        -   -122
        ori_min:
        -   -0.27846458554267883
        ori_max:
        -   10.92735767364502
    /model.10/Resize_output_0:
        qtype: asymmetric_quantized
        qmethod: layer
        dtype: int8
        min:
        -   -0.27846458554267883
        max:
        -   10.92735767364502
        scale:
        -   0.043944401016422344
        zero_point:
        -   -122
        ori_min:
        -   -0.27846458554267883
        ori_max:
        -   10.92735767364502
    /model.11/Concat_output_0:
        qtype: asymmetric_quantized
        qmethod: layer
        dtype: int8
        min:
        -   -0.27846458554267883
        max:
        -   10.92735767364502
        scale:
        -   0.043944401016422344
        zero_point:
        -   -122
        ori_min:
        -   -0.27846458554267883
        ori_max:
        -   10.92735767364502
    /model.12/cv1/conv/Conv_output_0:
        qtype: asymmetric_quantized
        qmethod: layer
        dtype: int8
        min:
        -   -10.462761878967285
        max:
        -   10.958599090576172
        scale:
        -   0.08400533713546454
        zero_point:
        -   -3
        ori_min:
        -   -10.462761878967285
        ori_max:
        -   10.958599090576172
    /model.12/cv1/act/Mul_output_0:
        qtype: asymmetric_quantized
        qmethod: layer
        dtype: int8
        min:
        -   -0.27846458554267883
        max:
        -   10.95840835571289
        scale:
        -   0.04406616839708066
        zero_point:
        -   -122
        ori_min:
        -   -0.27846458554267883
        ori_max:
        -   10.95840835571289
    /model.12/Split_output_0:
        qtype: asymmetric_quantized
        qmethod: layer
        dtype: int8
        min:
        -   -0.27846458554267883
        max:
        -   10.95840835571289
        scale:
        -   0.04406616839708066
        zero_point:
        -   -122
        ori_min:
        -   -0.27846458554267883
        ori_max:
        -   10.95840835571289
    /model.12/Split_output_1:
        qtype: asymmetric_quantized
        qmethod: layer
        dtype: int8
        min:
        -   -0.27846458554267883
        max:
        -   6.575326919555664
        scale:
        -   0.026877613745483697
        zero_point:
        -   -118
        ori_min:
        -   -0.27846458554267883
        ori_max:
        -   6.575326919555664
    /model.12/m.0/cv1/conv/Conv_output_0:
        qtype: asymmetric_quantized
        qmethod: layer
        dtype: int8
        min:
        -   -11.117637634277344
        max:
        -   6.792574405670166
        scale:
        -   0.07023612564685298
        zero_point:
        -   30
        ori_min:
        -   -11.117637634277344
        ori_max:
        -   6.792574405670166
    /model.12/m.0/cv1/act/Mul_output_0:
        qtype: asymmetric_quantized
        qmethod: layer
        dtype: int8
        min:
        -   -0.27846458554267883
        max:
        -   6.784960746765137
        scale:
        -   0.027699707185520846
        zero_point:
        -   -118
        ori_min:
        -   -0.27846458554267883
        ori_max:
        -   6.784960746765137
    /model.12/m.0/cv2/conv/Conv_output_0:
        qtype: asymmetric_quantized
        qmethod: layer
        dtype: int8
        min:
        -   -10.895015716552734
        max:
        -   11.635583877563477
        scale:
        -   0.08835529252594593
        zero_point:
        -   -5
        ori_min:
        -   -10.895015716552734
        ori_max:
        -   11.635583877563477
    /model.12/m.0/cv2/act/Mul_output_0:
        qtype: asymmetric_quantized
        qmethod: layer
        dtype: int8
        min:
        -   -0.27846458554267883
        max:
        -   11.635480880737305
        scale:
        -   0.04672135476972543
        zero_point:
        -   -122
        ori_min:
        -   -0.27846458554267883
        ori_max:
        -   11.635480880737305
    /model.12/Concat_output_0:
        qtype: asymmetric_quantized
        qmethod: layer
        dtype: int8
        min:
        -   -0.27846458554267883
        max:
        -   11.635480880737305
        scale:
        -   0.04672135476972543
        zero_point:
        -   -122
        ori_min:
        -   -0.27846458554267883
        ori_max:
        -   11.635480880737305
    /model.12/cv2/conv/Conv_output_0:
        qtype: asymmetric_quantized
        qmethod: layer
        dtype: int8
        min:
        -   -12.23480224609375
        max:
        -   9.2235689163208
        scale:
        -   0.08415047514672373
        zero_point:
        -   17
        ori_min:
        -   -12.23480224609375
        ori_max:
        -   9.2235689163208
    /model.12/cv2/act/Mul_output_0:
        qtype: asymmetric_quantized
        qmethod: layer
        dtype: int8
        min:
        -   -0.27846458554267883
        max:
        -   9.222658157348633
        scale:
        -   0.037259304874083576
        zero_point:
        -   -121
        ori_min:
        -   -0.27846458554267883
        ori_max:
        -   9.222658157348633
    /model.13/Resize_output_0:
        qtype: asymmetric_quantized
        qmethod: layer
        dtype: int8
        min:
        -   -0.27846458554267883
        max:
        -   9.222658157348633
        scale:
        -   0.037259304874083576
        zero_point:
        -   -121
        ori_min:
        -   -0.27846458554267883
        ori_max:
        -   9.222658157348633
    /model.14/Concat_output_0:
        qtype: asymmetric_quantized
        qmethod: layer
        dtype: int8
        min:
        -   -0.27846458554267883
        max:
        -   9.683236122131348
        scale:
        -   0.03906549297127069
        zero_point:
        -   -121
        ori_min:
        -   -0.27846458554267883
        ori_max:
        -   9.683236122131348
    /model.15/cv1/conv/Conv_output_0:
        qtype: asymmetric_quantized
        qmethod: layer
        dtype: int8
        min:
        -   -9.918228149414062
        max:
        -   6.137260437011719
        scale:
        -   0.06296270033892463
        zero_point:
        -   30
        ori_min:
        -   -9.918228149414062
        ori_max:
        -   6.137260437011719
    /model.15/cv1/act/Mul_output_0:
        qtype: asymmetric_quantized
        qmethod: layer
        dtype: int8
        min:
        -   -0.27846458554267883
        max:
        -   6.124027729034424
        scale:
        -   0.02510781299834158
        zero_point:
        -   -117
        ori_min:
        -   -0.27846458554267883
        ori_max:
        -   6.124027729034424
    /model.15/Split_output_0:
        qtype: asymmetric_quantized
        qmethod: layer
        dtype: int8
        min:
        -   -0.27846458554267883
        max:
        -   5.259298801422119
        scale:
        -   0.021716719164567834
        zero_point:
        -   -115
        ori_min:
        -   -0.27846458554267883
        ori_max:
        -   5.259298801422119
    /model.15/Split_output_1:
        qtype: asymmetric_quantized
        qmethod: layer
        dtype: int8
        min:
        -   -0.27846458554267883
        max:
        -   6.124027729034424
        scale:
        -   0.02510781299834158
        zero_point:
        -   -117
        ori_min:
        -   -0.27846458554267883
        ori_max:
        -   6.124027729034424
    /model.15/m.0/cv1/conv/Conv_output_0:
        qtype: asymmetric_quantized
        qmethod: layer
        dtype: int8
        min:
        -   -6.819277763366699
        max:
        -   5.168400287628174
        scale:
        -   0.04701050216076421
        zero_point:
        -   17
        ori_min:
        -   -6.819277763366699
        ori_max:
        -   5.168400287628174
    /model.15/m.0/cv1/act/Mul_output_0:
        qtype: asymmetric_quantized
        qmethod: layer
        dtype: int8
        min:
        -   -0.27846458554267883
        max:
        -   5.139139652252197
        scale:
        -   0.021245506814881868
        zero_point:
        -   -115
        ori_min:
        -   -0.27846458554267883
        ori_max:
        -   5.139139652252197
    /model.15/m.0/cv2/conv/Conv_output_0:
        qtype: asymmetric_quantized
        qmethod: layer
        dtype: int8
        min:
        -   -8.675453186035156
        max:
        -   8.484067916870117
        scale:
        -   0.06729223961923636
        zero_point:
        -   1
        ori_min:
        -   -8.675453186035156
        ori_max:
        -   8.484067916870117
    /model.15/m.0/cv2/act/Mul_output_0:
        qtype: asymmetric_quantized
        qmethod: layer
        dtype: int8
        min:
        -   -0.27846458554267883
        max:
        -   8.482315063476562
        scale:
        -   0.03435599862360487
        zero_point:
        -   -120
        ori_min:
        -   -0.27846458554267883
        ori_max:
        -   8.482315063476562
    /model.15/Concat_output_0:
        qtype: asymmetric_quantized
        qmethod: layer
        dtype: int8
        min:
        -   -0.27846458554267883
        max:
        -   8.482315063476562
        scale:
        -   0.03435599862360487
        zero_point:
        -   -120
        ori_min:
        -   -0.27846458554267883
        ori_max:
        -   8.482315063476562
    /model.15/cv2/conv/Conv_output_0:
        qtype: asymmetric_quantized
        qmethod: layer
        dtype: int8
        min:
        -   -11.910015106201172
        max:
        -   6.179061412811279
        scale:
        -   0.07093755497651942
        zero_point:
        -   40
        ori_min:
        -   -11.910015106201172
        ori_max:
        -   6.179061412811279
    /model.15/cv2/act/Mul_output_0:
        qtype: asymmetric_quantized
        qmethod: layer
        dtype: int8
        min:
        -   -0.27846458554267883
        max:
        -   6.166282653808594
        scale:
        -   0.025273518585691265
        zero_point:
        -   -117
        ori_min:
        -   -0.27846458554267883
        ori_max:
        -   6.166282653808594
    /model.16/conv/Conv_output_0:
        qtype: asymmetric_quantized
        qmethod: layer
        dtype: int8
        min:
        -   -8.033723831176758
        max:
        -   6.931490898132324
        scale:
        -   0.05868711658552581
        zero_point:
        -   9
        ori_min:
        -   -8.033723831176758
        ori_max:
        -   6.931490898132324
    /model.16/act/Mul_output_0:
        qtype: asymmetric_quantized
        qmethod: layer
        dtype: int8
        min:
        -   -0.27846458554267883
        max:
        -   6.9247283935546875
        scale:
        -   0.028247815604303398
        zero_point:
        -   -118
        ori_min:
        -   -0.27846458554267883
        ori_max:
        -   6.9247283935546875
    /model.17/Concat_output_0:
        qtype: asymmetric_quantized
        qmethod: layer
        dtype: int8
        min:
        -   -0.27846458554267883
        max:
        -   9.222658157348633
        scale:
        -   0.037259304874083576
        zero_point:
        -   -121
        ori_min:
        -   -0.27846458554267883
        ori_max:
        -   9.222658157348633
    /model.18/cv1/conv/Conv_output_0:
        qtype: asymmetric_quantized
        qmethod: layer
        dtype: int8
        min:
        -   -11.808319091796875
        max:
        -   7.829094886779785
        scale:
        -   0.07700946658265356
        zero_point:
        -   25
        ori_min:
        -   -11.808319091796875
        ori_max:
        -   7.829094886779785
    /model.18/cv1/act/Mul_output_0:
        qtype: asymmetric_quantized
        qmethod: layer
        dtype: int8
        min:
        -   -0.27846458554267883
        max:
        -   7.825980186462402
        scale:
        -   0.03178213636080424
        zero_point:
        -   -119
        ori_min:
        -   -0.27846458554267883
        ori_max:
        -   7.825980186462402
    /model.18/Split_output_0:
        qtype: asymmetric_quantized
        qmethod: layer
        dtype: int8
        min:
        -   -0.27846458554267883
        max:
        -   7.63941764831543
        scale:
        -   0.031050518564149445
        zero_point:
        -   -119
        ori_min:
        -   -0.27846458554267883
        ori_max:
        -   7.63941764831543
    /model.18/Split_output_1:
        qtype: asymmetric_quantized
        qmethod: layer
        dtype: int8
        min:
        -   -0.27846458554267883
        max:
        -   7.825980186462402
        scale:
        -   0.03178213636080424
        zero_point:
        -   -119
        ori_min:
        -   -0.27846458554267883
        ori_max:
        -   7.825980186462402
    /model.18/m.0/cv1/conv/Conv_output_0:
        qtype: asymmetric_quantized
        qmethod: layer
        dtype: int8
        min:
        -   -7.735929012298584
        max:
        -   4.968061447143555
        scale:
        -   0.049819570429184855
        zero_point:
        -   27
        ori_min:
        -   -7.735929012298584
        ori_max:
        -   4.968061447143555
    /model.18/m.0/cv1/act/Mul_output_0:
        qtype: asymmetric_quantized
        qmethod: layer
        dtype: int8
        min:
        -   -0.27846458554267883
        max:
        -   4.933739185333252
        scale:
        -   0.020440014787748748
        zero_point:
        -   -114
        ori_min:
        -   -0.27846458554267883
        ori_max:
        -   4.933739185333252
    /model.18/m.0/cv2/conv/Conv_output_0:
        qtype: asymmetric_quantized
        qmethod: layer
        dtype: int8
        min:
        -   -13.60222053527832
        max:
        -   11.354498863220215
        scale:
        -   0.09786948783724916
        zero_point:
        -   11
        ori_min:
        -   -13.60222053527832
        ori_max:
        -   11.354498863220215
    /model.18/m.0/cv2/act/Mul_output_0:
        qtype: asymmetric_quantized
        qmethod: layer
        dtype: int8
        min:
        -   -0.27846458554267883
        max:
        -   11.354366302490234
        scale:
        -   0.0456189446589526
        zero_point:
        -   -122
        ori_min:
        -   -0.27846458554267883
        ori_max:
        -   11.354366302490234
    /model.18/Concat_output_0:
        qtype: asymmetric_quantized
        qmethod: layer
        dtype: int8
        min:
        -   -0.27846458554267883
        max:
        -   11.354366302490234
        scale:
        -   0.0456189446589526
        zero_point:
        -   -122
        ori_min:
        -   -0.27846458554267883
        ori_max:
        -   11.354366302490234
    /model.18/cv2/conv/Conv_output_0:
        qtype: asymmetric_quantized
        qmethod: layer
        dtype: int8
        min:
        -   -15.62299919128418
        max:
        -   6.414496421813965
        scale:
        -   0.08642155142391429
        zero_point:
        -   53
        ori_min:
        -   -15.62299919128418
        ori_max:
        -   6.414496421813965
    /model.18/cv2/act/Mul_output_0:
        qtype: asymmetric_quantized
        qmethod: layer
        dtype: int8
        min:
        -   -0.27846458554267883
        max:
        -   6.404008388519287
        scale:
        -   0.026205776368870455
        zero_point:
        -   -117
        ori_min:
        -   -0.27846458554267883
        ori_max:
        -   6.404008388519287
    /model.19/conv/Conv_output_0:
        qtype: asymmetric_quantized
        qmethod: layer
        dtype: int8
        min:
        -   -13.709561347961426
        max:
        -   9.437359809875488
        scale:
        -   0.09077223983465456
        zero_point:
        -   23
        ori_min:
        -   -13.709561347961426
        ori_max:
        -   9.437359809875488
    /model.19/act/Mul_output_0:
        qtype: asymmetric_quantized
        qmethod: layer
        dtype: int8
        min:
        -   -0.27846458554267883
        max:
        -   9.43660831451416
        scale:
        -   0.038098325098262116
        zero_point:
        -   -121
        ori_min:
        -   -0.27846458554267883
        ori_max:
        -   9.43660831451416
    /model.20/Concat_output_0:
        qtype: asymmetric_quantized
        qmethod: layer
        dtype: int8
        min:
        -   -0.27846458554267883
        max:
        -   10.92735767364502
        scale:
        -   0.043944401016422344
        zero_point:
        -   -122
        ori_min:
        -   -0.27846458554267883
        ori_max:
        -   10.92735767364502
    /model.21/cv1/conv/Conv_output_0:
        qtype: asymmetric_quantized
        qmethod: layer
        dtype: int8
        min:
        -   -13.188699722290039
        max:
        -   10.789774894714355
        scale:
        -   0.0940332337921741
        zero_point:
        -   12
        ori_min:
        -   -13.188699722290039
        ori_max:
        -   10.789774894714355
    /model.21/cv1/act/Mul_output_0:
        qtype: asymmetric_quantized
        qmethod: layer
        dtype: int8
        min:
        -   -0.27846458554267883
        max:
        -   10.789552688598633
        scale:
        -   0.04340398931035808
        zero_point:
        -   -122
        ori_min:
        -   -0.27846458554267883
        ori_max:
        -   10.789552688598633
    /model.21/Split_output_0:
        qtype: asymmetric_quantized
        qmethod: layer
        dtype: int8
        min:
        -   -0.27846458554267883
        max:
        -   9.705450057983398
        scale:
        -   0.0391526064452003
        zero_point:
        -   -121
        ori_min:
        -   -0.27846458554267883
        ori_max:
        -   9.705450057983398
    /model.21/Split_output_1:
        qtype: asymmetric_quantized
        qmethod: layer
        dtype: int8
        min:
        -   -0.27846458554267883
        max:
        -   10.789552688598633
        scale:
        -   0.04340398931035808
        zero_point:
        -   -122
        ori_min:
        -   -0.27846458554267883
        ori_max:
        -   10.789552688598633
    /model.21/m.0/cv1/conv/Conv_output_0:
        qtype: asymmetric_quantized
        qmethod: layer
        dtype: int8
        min:
        -   -10.886284828186035
        max:
        -   7.629822254180908
        scale:
        -   0.07261218463673311
        zero_point:
        -   22
        ori_min:
        -   -10.886284828186035
        ori_max:
        -   7.629822254180908
    /model.21/m.0/cv1/act/Mul_output_0:
        qtype: asymmetric_quantized
        qmethod: layer
        dtype: int8
        min:
        -   -0.27846458554267883
        max:
        -   7.626117706298828
        scale:
        -   0.030998361928790224
        zero_point:
        -   -119
        ori_min:
        -   -0.27846458554267883
        ori_max:
        -   7.626117706298828
    /model.21/m.0/cv2/conv/Conv_output_0:
        qtype: asymmetric_quantized
        qmethod: layer
        dtype: int8
        min:
        -   -14.474494934082031
        max:
        -   14.048243522644043
        scale:
        -   0.11185387630088657
        zero_point:
        -   1
        ori_min:
        -   -14.474494934082031
        ori_max:
        -   14.048243522644043
    /model.21/m.0/cv2/act/Mul_output_0:
        qtype: asymmetric_quantized
        qmethod: layer
        dtype: int8
        min:
        -   -0.27846458554267883
        max:
        -   14.048232078552246
        scale:
        -   0.056183124172921275
        zero_point:
        -   -123
        ori_min:
        -   -0.27846458554267883
        ori_max:
        -   14.048232078552246
    /model.21/Concat_output_0:
        qtype: asymmetric_quantized
        qmethod: layer
        dtype: int8
        min:
        -   -0.27846458554267883
        max:
        -   14.048232078552246
        scale:
        -   0.056183124172921275
        zero_point:
        -   -123
        ori_min:
        -   -0.27846458554267883
        ori_max:
        -   14.048232078552246
    /model.21/cv2/conv/Conv_output_0:
        qtype: asymmetric_quantized
        qmethod: layer
        dtype: int8
        min:
        -   -26.29207420349121
        max:
        -   9.50754165649414
        scale:
        -   0.1403906504313151
        zero_point:
        -   59
        ori_min:
        -   -26.29207420349121
        ori_max:
        -   9.50754165649414
    /model.21/cv2/act/Mul_output_0:
        qtype: asymmetric_quantized
        qmethod: layer
        dtype: int8
        min:
        -   -0.27846458554267883
        max:
        -   9.5068359375
        scale:
        -   0.03837372754134384
        zero_point:
        -   -121
        ori_min:
        -   -0.27846458554267883
        ori_max:
        -   9.5068359375
    /model.22/cv2.2/cv2.2.0/conv/Conv_output_0:
        qtype: asymmetric_quantized
        qmethod: layer
        dtype: int8
        min:
        -   -17.904212951660156
        max:
        -   14.006205558776855
        scale:
        -   0.12513889611936083
        zero_point:
        -   15
        ori_min:
        -   -17.904212951660156
        ori_max:
        -   14.006205558776855
    /model.22/cv2.2/cv2.2.0/act/Mul_output_0:
        qtype: asymmetric_quantized
        qmethod: layer
        dtype: int8
        min:
        -   -0.27846458554267883
        max:
        -   14.006194114685059
        scale:
        -   0.05601826941265779
        zero_point:
        -   -123
        ori_min:
        -   -0.27846458554267883
        ori_max:
        -   14.006194114685059
    /model.22/cv2.2/cv2.2.1/conv/Conv_output_0:
        qtype: asymmetric_quantized
        qmethod: layer
        dtype: int8
        min:
        -   -23.205371856689453
        max:
        -   62.851539611816406
        scale:
        -   0.3374780841902191
        zero_point:
        -   -59
        ori_min:
        -   -23.205371856689453
        ori_max:
        -   62.851539611816406
    /model.22/cv2.2/cv2.2.1/act/Mul_output_0:
        qtype: asymmetric_quantized
        qmethod: layer
        dtype: int8
        min:
        -   -0.27846458554267883
        max:
        -   62.851539611816406
        scale:
        -   0.2475686439112121
        zero_point:
        -   -127
        ori_min:
        -   -0.27846458554267883
        ori_max:
        -   62.851539611816406
    /model.22/cv2.2/cv2.2.2/Conv_output_0:
        qtype: asymmetric_quantized
        qmethod: layer
        dtype: int8
        min:
        -   -8.136119842529297
        max:
        -   13.740826606750488
        scale:
        -   0.08579194685992073
        zero_point:
        -   -33
        ori_min:
        -   -8.136119842529297
        ori_max:
        -   13.740826606750488
    /model.22/cv3.2/cv3.2.0/conv/Conv_output_0:
        qtype: asymmetric_quantized
        qmethod: layer
        dtype: int8
        min:
        -   -26.414621353149414
        max:
        -   9.826387405395508
        scale:
        -   0.14212160297468596
        zero_point:
        -   58
        ori_min:
        -   -26.414621353149414
        ori_max:
        -   9.826387405395508
    /model.22/cv3.2/cv3.2.0/act/Mul_output_0:
        qtype: asymmetric_quantized
        qmethod: layer
        dtype: int8
        min:
        -   -0.27846458554267883
        max:
        -   9.825857162475586
        scale:
        -   0.039624791168699075
        zero_point:
        -   -121
        ori_min:
        -   -0.27846458554267883
        ori_max:
        -   9.825857162475586
    /model.22/cv3.2/cv3.2.1/conv/Conv_output_0:
        qtype: asymmetric_quantized
        qmethod: layer
        dtype: int8
        min:
        -   -73.6196060180664
        max:
        -   92.30587768554688
        scale:
        -   0.6506881713867188
        zero_point:
        -   -15
        ori_min:
        -   -73.6196060180664
        ori_max:
        -   92.30587768554688
    /model.22/cv3.2/cv3.2.1/act/Mul_output_0:
        qtype: asymmetric_quantized
        qmethod: layer
        dtype: int8
        min:
        -   -0.27846458554267883
        max:
        -   92.30587768554688
        scale:
        -   0.36307585204348847
        zero_point:
        -   -127
        ori_min:
        -   -0.27846458554267883
        ori_max:
        -   92.30587768554688
    /model.22/cv3.2/cv3.2.2/Conv_output_0:
        qtype: asymmetric_quantized
        qmethod: layer
        dtype: int8
        min:
        -   -9.250774383544922
        max:
        -   3.1311473846435547
        scale:
        -   0.0485565559536803
        zero_point:
        -   63
        ori_min:
        -   -59.73252487182617
        ori_max:
        -   3.1311473846435547
    /model.22/Concat_2_output_0:
        qtype: asymmetric_quantized
        qmethod: layer
        dtype: int8
        min:
        -   -9.250774383544922
        max:
        -   13.740826606750488
        scale:
        -   0.09016314113841337
        zero_point:
        -   -25
        ori_min:
        -   -59.73252487182617
        ori_max:
        -   13.740826606750488
    /model.22/Reshape_2_output_0_shape4_/model.22/Concat_3:
        qtype: asymmetric_quantized
        qmethod: layer
        dtype: int8
        min:
        -   -9.250774383544922
        max:
        -   13.740826606750488
        scale:
        -   0.09016314113841337
        zero_point:
        -   -25
        ori_min:
        -   -59.73252487182617
        ori_max:
        -   13.740826606750488
    /model.22/cv2.1/cv2.1.0/conv/Conv_output_0:
        qtype: asymmetric_quantized
        qmethod: layer
        dtype: int8
        min:
        -   -19.812950134277344
        max:
        -   14.907477378845215
        scale:
        -   0.1361585392671473
        zero_point:
        -   18
        ori_min:
        -   -19.812950134277344
        ori_max:
        -   14.907477378845215
    /model.22/cv2.1/cv2.1.0/act/Mul_output_0:
        qtype: asymmetric_quantized
        qmethod: layer
        dtype: int8
        min:
        -   -0.27846458554267883
        max:
        -   14.907471656799316
        scale:
        -   0.0595526911464392
        zero_point:
        -   -123
        ori_min:
        -   -0.27846458554267883
        ori_max:
        -   14.907471656799316
    /model.22/cv2.1/cv2.1.1/conv/Conv_output_0:
        qtype: asymmetric_quantized
        qmethod: layer
        dtype: int8
        min:
        -   -32.76022720336914
        max:
        -   67.18785095214844
        scale:
        -   0.3919532476686964
        zero_point:
        -   -44
        ori_min:
        -   -32.76022720336914
        ori_max:
        -   67.18785095214844
    /model.22/cv2.1/cv2.1.1/act/Mul_output_0:
        qtype: asymmetric_quantized
        qmethod: layer
        dtype: int8
        min:
        -   -0.27846458554267883
        max:
        -   67.18785095214844
        scale:
        -   0.2645737864223181
        zero_point:
        -   -127
        ori_min:
        -   -0.27846458554267883
        ori_max:
        -   67.18785095214844
    /model.22/cv2.1/cv2.1.2/Conv_output_0:
        qtype: asymmetric_quantized
        qmethod: layer
        dtype: int8
        min:
        -   -8.858295440673828
        max:
        -   15.870147705078125
        scale:
        -   0.0969742868460861
        zero_point:
        -   -37
        ori_min:
        -   -8.858295440673828
        ori_max:
        -   15.870147705078125
    /model.22/cv3.1/cv3.1.0/conv/Conv_output_0:
        qtype: asymmetric_quantized
        qmethod: layer
        dtype: int8
        min:
        -   -17.287670135498047
        max:
        -   9.316290855407715
        scale:
        -   0.10432925878786574
        zero_point:
        -   38
        ori_min:
        -   -17.287670135498047
        ori_max:
        -   9.316290855407715
    /model.22/cv3.1/cv3.1.0/act/Mul_output_0:
        qtype: asymmetric_quantized
        qmethod: layer
        dtype: int8
        min:
        -   -0.27846458554267883
        max:
        -   9.315452575683594
        scale:
        -   0.03762320455382852
        zero_point:
        -   -121
        ori_min:
        -   -0.27846458554267883
        ori_max:
        -   9.315452575683594
    /model.22/cv3.1/cv3.1.1/conv/Conv_output_0:
        qtype: asymmetric_quantized
        qmethod: layer
        dtype: int8
        min:
        -   -129.56536865234375
        max:
        -   126.32588195800781
        scale:
        -   1.0034951004327513
        zero_point:
        -   1
        ori_min:
        -   -129.56536865234375
        ori_max:
        -   126.32588195800781
    /model.22/cv3.1/cv3.1.1/act/Mul_output_0:
        qtype: asymmetric_quantized
        qmethod: layer
        dtype: int8
        min:
        -   -0.27846458554267883
        max:
        -   126.32588195800781
        scale:
        -   0.49648763350411956
        zero_point:
        -   -127
        ori_min:
        -   -0.27846458554267883
        ori_max:
        -   126.32588195800781
    /model.22/cv3.1/cv3.1.2/Conv_output_0:
        qtype: asymmetric_quantized
        qmethod: layer
        dtype: int8
        min:
        -   -9.250774383544922
        max:
        -   2.8991613388061523
        scale:
        -   0.04764680675431794
        zero_point:
        -   66
        ori_min:
        -   -53.76200485229492
        ori_max:
        -   2.8991613388061523
    /model.22/Concat_1_output_0:
        qtype: asymmetric_quantized
        qmethod: layer
        dtype: int8
        min:
        -   -9.250774383544922
        max:
        -   15.870147705078125
        scale:
        -   0.0985134199553845
        zero_point:
        -   -34
        ori_min:
        -   -53.76200485229492
        ori_max:
        -   15.870147705078125
    /model.22/Reshape_1_output_0_shape4_/model.22/Concat_3:
        qtype: asymmetric_quantized
        qmethod: layer
        dtype: int8
        min:
        -   -9.250774383544922
        max:
        -   15.870147705078125
        scale:
        -   0.0985134199553845
        zero_point:
        -   -34
        ori_min:
        -   -53.76200485229492
        ori_max:
        -   15.870147705078125
    /model.22/cv2.0/cv2.0.0/conv/Conv_output_0:
        qtype: asymmetric_quantized
        qmethod: layer
        dtype: int8
        min:
        -   -16.869552612304688
        max:
        -   8.2654390335083
        scale:
        -   0.0985685946894627
        zero_point:
        -   43
        ori_min:
        -   -16.869552612304688
        ori_max:
        -   8.2654390335083
    /model.22/cv2.0/cv2.0.0/act/Mul_output_0:
        qtype: asymmetric_quantized
        qmethod: layer
        dtype: int8
        min:
        -   -0.27846458554267883
        max:
        -   8.263313293457031
        scale:
        -   0.033497168152940036
        zero_point:
        -   -120
        ori_min:
        -   -0.27846458554267883
        ori_max:
        -   8.263313293457031
    /model.22/cv2.0/cv2.0.1/conv/Conv_output_0:
        qtype: asymmetric_quantized
        qmethod: layer
        dtype: int8
        min:
        -   -36.66091537475586
        max:
        -   49.99077224731445
        scale:
        -   0.3398105396943934
        zero_point:
        -   -20
        ori_min:
        -   -36.66091537475586
        ori_max:
        -   49.99077224731445
    /model.22/cv2.0/cv2.0.1/act/Mul_output_0:
        qtype: asymmetric_quantized
        qmethod: layer
        dtype: int8
        min:
        -   -0.27846458554267883
        max:
        -   49.99077224731445
        scale:
        -   0.1971342620896358
        zero_point:
        -   -127
        ori_min:
        -   -0.27846458554267883
        ori_max:
        -   49.99077224731445
    /model.22/cv2.0/cv2.0.2/Conv_output_0:
        qtype: asymmetric_quantized
        qmethod: layer
        dtype: int8
        min:
        -   -9.250774383544922
        max:
        -   23.206541061401367
        scale:
        -   0.12728358998018152
        zero_point:
        -   -55
        ori_min:
        -   -9.250774383544922
        ori_max:
        -   23.206541061401367
    /model.22/cv3.0/cv3.0.0/conv/Conv_output_0:
        qtype: asymmetric_quantized
        qmethod: layer
        dtype: int8
        min:
        -   -11.844074249267578
        max:
        -   6.614507675170898
        scale:
        -   0.07238659578211168
        zero_point:
        -   36
        ori_min:
        -   -11.844074249267578
        ori_max:
        -   6.614507675170898
    /model.22/cv3.0/cv3.0.0/act/Mul_output_0:
        qtype: asymmetric_quantized
        qmethod: layer
        dtype: int8
        min:
        -   -0.27846458554267883
        max:
        -   6.605650901794434
        scale:
        -   0.02699653132289064
        zero_point:
        -   -118
        ori_min:
        -   -0.27846458554267883
        ori_max:
        -   6.605650901794434
    /model.22/cv3.0/cv3.0.1/conv/Conv_output_0:
        qtype: asymmetric_quantized
        qmethod: layer
        dtype: int8
        min:
        -   -110.94032287597656
        max:
        -   114.06614685058594
        scale:
        -   0.8823783126531862
        zero_point:
        -   -2
        ori_min:
        -   -110.94032287597656
        ori_max:
        -   114.06614685058594
    /model.22/cv3.0/cv3.0.1/act/Mul_output_0:
        qtype: asymmetric_quantized
        qmethod: layer
        dtype: int8
        min:
        -   -0.27846458554267883
        max:
        -   114.06614685058594
        scale:
        -   0.4484102409259946
        zero_point:
        -   -127
        ori_min:
        -   -0.27846458554267883
        ori_max:
        -   114.06614685058594
    /model.22/cv3.0/cv3.0.2/Conv_output_0:
        qtype: asymmetric_quantized
        qmethod: layer
        dtype: int8
        min:
        -   -9.250774383544922
        max:
        -   1.5555095672607422
        scale:
        -   0.04237758412080653
        zero_point:
        -   90
        ori_min:
        -   -37.62425994873047
        ori_max:
        -   1.5555095672607422
    /model.22/Concat_output_0:
        qtype: asymmetric_quantized
        qmethod: layer
        dtype: int8
        min:
        -   -9.250774383544922
        max:
        -   23.206541061401367
        scale:
        -   0.12728358998018152
        zero_point:
        -   -55
        ori_min:
        -   -37.62425994873047
        ori_max:
        -   23.206541061401367
    /model.22/Reshape_output_0_shape4_/model.22/Concat_3:
        qtype: asymmetric_quantized
        qmethod: layer
        dtype: int8
        min:
        -   -9.250774383544922
        max:
        -   23.206541061401367
        scale:
        -   0.12728358998018152
        zero_point:
        -   -55
        ori_min:
        -   -37.62425994873047
        ori_max:
        -   23.206541061401367
    /model.22/Concat_3_output_0:
        qtype: asymmetric_quantized
        qmethod: layer
        dtype: int8
        min:
        -   -9.250774383544922
        max:
        -   23.206541061401367
        scale:
        -   0.12728358998018152
        zero_point:
        -   -55
        ori_min:
        -   -59.73252487182617
        ori_max:
        -   23.206541061401367
    /model.22/Split_output_0_shape4:
        qtype: asymmetric_quantized
        qmethod: layer
        dtype: int8
        min:
        -   -9.250774383544922
        max:
        -   23.206541061401367
        scale:
        -   0.12728358998018152
        zero_point:
        -   -55
        ori_min:
        -   -9.250774383544922
        ori_max:
        -   23.206541061401367
    /model.22/Split_output_1:
        qtype: asymmetric_quantized
        qmethod: layer
        dtype: int8
        min:
        -   -7.0
        max:
        -   3.1311473846435547
        scale:
        -   0.03972998974370021
        zero_point:
        -   48
        ori_min:
        -   -59.73252487182617
        ori_max:
        -   3.1311473846435547
    /model.22/dfl/Reshape_output_0:
        qtype: asymmetric_quantized
        qmethod: layer
        dtype: int8
        min:
        -   -9.250774383544922
        max:
        -   23.206541061401367
        scale:
        -   0.12728358998018152
        zero_point:
        -   -55
        ori_min:
        -   -9.250774383544922
        ori_max:
        -   23.206541061401367
    /model.22/dfl/Softmax_pre_tp:
        qtype: asymmetric_quantized
        qmethod: layer
        dtype: int8
        min:
        -   -9.250774383544922
        max:
        -   23.206541061401367
        scale:
        -   0.12728358998018152
        zero_point:
        -   -55
        ori_min:
        -   -9.250774383544922
        ori_max:
        -   23.206541061401367
    /model.22/dfl/Softmax_new:
        qtype: asymmetric_quantized
        qmethod: layer
        dtype: int8
        min:
        -   0.0
        max:
        -   0.9616689085960388
        scale:
        -   0.0037712506219452504
        zero_point:
        -   -128
        ori_min:
        -   5.844063839625935e-13
        ori_max:
        -   0.9616689085960388
    /model.22/dfl/conv/Conv_output_0:
        qtype: asymmetric_quantized
        qmethod: layer
        dtype: int8
        min:
        -   0.0
        max:
        -   14.7358980178833
        scale:
        -   0.05778783536424824
        zero_point:
        -   -128
        ori_min:
        -   0.04508436098694801
        ori_max:
        -   14.7358980178833
    /model.22/dfl/Reshape_1_output_0_shape4_/model.22/Slice_2split:
        qtype: asymmetric_quantized
        qmethod: layer
        dtype: int8
        min:
        -   0.0
        max:
        -   14.7358980178833
        scale:
        -   0.05778783536424824
        zero_point:
        -   -128
        ori_min:
        -   0.04508436098694801
        ori_max:
        -   14.7358980178833
    /model.22/dfl/Reshape_1_output_0_shape4_/model.22/Slice_2split_conv_/model.22/Slice_2split:
        qtype: asymmetric_quantized
        qmethod: layer
        dtype: int8
        min:
        -   0.0
        max:
        -   14.7358980178833
        scale:
        -   0.05778783536424824
        zero_point:
        -   -128
        ori_min:
        -   0.0
        ori_max:
        -   14.7358980178833
    /model.22/Slice_output_0_shape4_before_conv:
        qtype: asymmetric_quantized
        qmethod: layer
        dtype: int8
        min:
        -   0.0
        max:
        -   14.7358980178833
        scale:
        -   0.05778783536424824
        zero_point:
        -   -128
        ori_min:
        -   0.0
        ori_max:
        -   14.7358980178833
    /model.22/Slice_1_output_0:
        qtype: asymmetric_quantized
        qmethod: layer
        dtype: int8
        min:
        -   0.0
        max:
        -   14.470173835754395
        scale:
        -   0.056745779748056446
        zero_point:
        -   -128
        ori_min:
        -   0.05174793303012848
        ori_max:
        -   14.470173835754395
    /model.22/Slice_output_0:
        qtype: asymmetric_quantized
        qmethod: layer
        dtype: int8
        min:
        -   0.0
        max:
        -   14.7358980178833
        scale:
        -   0.05778783536424824
        zero_point:
        -   -128
        ori_min:
        -   0.04508436098694801
        ori_max:
        -   14.7358980178833
    /model.22/Sub_output_0:
        qtype: asymmetric_quantized
        qmethod: layer
        dtype: int8
        min:
        -   -4.123880863189697
        max:
        -   159.3843994140625
        scale:
        -   0.6412089422637341
        zero_point:
        -   -122
        ori_min:
        -   -4.123880863189697
        ori_max:
        -   159.3843994140625
    /model.22/Add_1_output_0:
        qtype: asymmetric_quantized
        qmethod: layer
        dtype: int8
        min:
        -   0.0
        max:
        -   162.97845458984375
        scale:
        -   0.6391311944699755
        zero_point:
        -   -128
        ori_min:
        -   0.6150078773498535
        ori_max:
        -   162.97845458984375
    /model.22/Sub_1_output_0:
        qtype: asymmetric_quantized
        qmethod: layer
        dtype: int8
        min:
        -   0.0
        max:
        -   28.68933868408203
        scale:
        -   0.11250721052581189
        zero_point:
        -   -128
        ori_min:
        -   0.4439239501953125
        ori_max:
        -   28.68933868408203
    /model.22/Concat_4_swap_concat_reshape_i1_out:
        qtype: asymmetric_quantized
        qmethod: layer
        dtype: int8
        min:
        -   0.0
        max:
        -   28.68933868408203
        scale:
        -   0.11250721052581189
        zero_point:
        -   -128
        ori_min:
        -   0.4439239501953125
        ori_max:
        -   28.68933868408203
    /model.22/Add_2_output_0:
        qtype: asymmetric_quantized
        qmethod: layer
        dtype: int8
        min:
        -   0.0
        max:
        -   319.3681945800781
        scale:
        -   1.2524242924708946
        zero_point:
        -   -128
        ori_min:
        -   0.5737786889076233
        ori_max:
        -   319.3681945800781
    /model.22/Div_1_output_0:
        qtype: asymmetric_quantized
        qmethod: layer
        dtype: int8
        min:
        -   0.0
        max:
        -   159.68409729003906
        scale:
        -   0.6262121462354473
        zero_point:
        -   -128
        ori_min:
        -   0.28688934445381165
        ori_max:
        -   159.68409729003906
    /model.22/Concat_4_swap_concat_reshape_i0_out:
        qtype: asymmetric_quantized
        qmethod: layer
        dtype: int8
        min:
        -   0.0
        max:
        -   159.68409729003906
        scale:
        -   0.6262121462354473
        zero_point:
        -   -128
        ori_min:
        -   0.28688934445381165
        ori_max:
        -   159.68409729003906
    /model.22/Concat_4_output_0_shape4:
        qtype: asymmetric_quantized
        qmethod: layer
        dtype: int8
        min:
        -   0.0
        max:
        -   159.68409729003906
        scale:
        -   0.6262121462354473
        zero_point:
        -   -128
        ori_min:
        -   0.28688934445381165
        ori_max:
        -   159.68409729003906
    /model.22/Mul_2_output_0_before:
        qtype: asymmetric_quantized
        qmethod: layer
        dtype: int8
        min:
        -   0.0
        max:
        -   1277.4727783203125
        scale:
        -   5.009697169883578
        zero_point:
        -   -128
        ori_min:
        -   2.295114755630493
        ori_max:
        -   1277.4727783203125
    /model.22/Sigmoid_output_0:
        qtype: asymmetric_quantized
        qmethod: layer
        dtype: int8
        min:
        -   0.0
        max:
        -   0.9581594467163086
        scale:
        -   0.003757488026338465
        zero_point:
        -   -128
        ori_min:
        -   0.0
        ori_max:
        -   0.9581594467163086
    /model.22/Concat_5_swap_concat_reshape_i1_out:
        qtype: asymmetric_quantized
        qmethod: layer
        dtype: int8
        min:
        -   0.0
        max:
        -   0.9581594467163086
        scale:
        -   0.003757488026338465
        zero_point:
        -   -128
        ori_min:
        -   0.0
        ori_max:
        -   0.9581594467163086
    output0_shape4:
        qtype: asymmetric_quantized
        qmethod: layer
        dtype: int8
        min:
        -   0.0
        max:
        -   1277.4727783203125
        scale:
        -   5.009697169883578
        zero_point:
        -   -128
        ori_min:
        -   0.0
        ori_max:
        -   1277.4727783203125
    output0:
        qtype: asymmetric_quantized
        qmethod: layer
        dtype: float32
        min:
        -   0.0
        max:
        -   1277.4727783203125
        scale: []
        zero_point: []
        ori_min:
        -   0.0
        ori_max:
        -   1277.4727783203125
    /model.22/Constant_9_output_0:
        qtype: symmetric_quantized
        qmethod: layer
        dtype: int32
        min:
        -   -159.5
        max:
        -   159.5
        scale:
        -   7.427297532558441e-08
        zero_point:
        -   0
        ori_min:
        -   0.5
        ori_max:
        -   159.5
    /model.22/Constant_10_output_0:
        qtype: symmetric_quantized
        qmethod: layer
        dtype: int32
        min:
        -   -159.5
        max:
        -   159.5
        scale:
        -   7.427297532558441e-08
        zero_point:
        -   0
        ori_min:
        -   0.5
        ori_max:
        -   159.5
    /model.22/Constant_12_output_0:
        qtype: asymmetric_quantized
        qmethod: layer
        dtype: int16
        min:
        -   0.0
        max:
        -   32.0
        scale:
        -   0.0004882887006942855
        zero_point:
        -   -32768
        ori_min:
        -   8.0
        ori_max:
        -   32.0
    images_int8:
        qtype: asymmetric_quantized
        qmethod: layer
        dtype: int8
        min:
        -   0.0
        max:
        -   1.0
        scale:
        -   0.00392156862745098
        zero_point:
        -   -128
        ori_min:
        -   0.0
        ori_max:
        -   1.0
    output0_int8:
        qtype: asymmetric_quantized
        qmethod: layer
        dtype: int8
        min:
        -   0.0
        max:
        -   1277.4727783203125
        scale:
        -   5.009697169883578
        zero_point:
        -   -128
        ori_min:
        -   0.0
        ori_max:
        -   1277.4727783203125
