custom_quantize_layers:
    /model.0/act/Mul_output_0: float16
    /model.1/conv/Conv_output_0: float16
    /model.1/act/Mul_output_0: float16
    /model.2/cv1/conv/Conv_output_0: float16
    /model.2/cv1/act/Mul_output_0: float16
    /model.2/Split_output_0: float16
    /model.2/Split_output_1: float16
    /model.2/m.0/cv1/conv/Conv_output_0: float16
    /model.2/m.0/Add_output_0: float16
    /model.2/Concat_output_0: float16
    /model.2/m.0/cv1/act/Mul_output_0: float16
    /model.2/m.0/cv2/conv/Conv_output_0: float16
    /model.2/m.0/cv2/act/Mul_output_0: float16
    /model.2/cv2/conv/Conv_output_0: float16
    /model.3/act/Mul_output_0: float16
    /model.4/cv1/conv/Conv_output_0: float16
    /model.4/m.1/cv2/act/Mul_output_0: float16
    /model.4/m.1/Add_output_0: float16
    /model.6/Split_output_0: float16
    /model.6/Concat_output_0: float16
    /model.6/m.1/cv2/act/Mul_output_0: float16
    /model.6/m.1/Add_output_0: float16
    /model.6/cv2/conv/Conv_output_0: float16
    /model.8/Split_output_0: float16
    /model.8/Concat_output_0: float16
    /model.8/m.0/cv2/act/Mul_output_0: float16
    /model.8/m.0/Add_output_0: float16
    /model.8/cv2/conv/Conv_output_0: float16
    /model.15/m.0/cv2/act/Mul_output_0: float16
    /model.15/Concat_output_0: float16
    /model.15/cv2/conv/Conv_output_0: float16
    /model.18/m.0/cv2/act/Mul_output_0: float16
    /model.18/Concat_output_0: float16
    /model.18/cv2/conv/Conv_output_0: float16
    /model.21/m.0/cv2/act/Mul_output_0: float16
    /model.21/Concat_output_0: float16
    /model.22/cv2.2/cv2.2.0/act/Mul_output_0: float16
    /model.22/cv2.2/cv2.2.1/conv/Conv_output_0: float16
    /model.22/cv2.2/cv2.2.1/act/Mul_output_0: float16
    /model.22/cv2.2/cv2.2.2/Conv_output_0: float16
    /model.22/cv3.2/cv3.2.0/act/Mul_output_0: float16
    /model.22/cv3.2/cv3.2.1/conv/Conv_output_0: float16
    /model.22/cv3.2/cv3.2.1/act/Mul_output_0: float16
    /model.22/cv3.2/cv3.2.2/Conv_output_0: float16
    /model.22/cv2.1/cv2.1.0/act/Mul_output_0: float16
    /model.22/cv2.1/cv2.1.1/conv/Conv_output_0: float16
    /model.22/cv2.1/cv2.1.1/act/Mul_output_0: float16
    /model.22/cv2.1/cv2.1.2/Conv_output_0: float16
    /model.22/cv3.1/cv3.1.1/act/Mul_output_0: float16
    /model.22/cv3.1/cv3.1.2/Conv_output_0: float16
    /model.22/cv2.0/cv2.0.1/act/Mul_output_0: float16
    /model.22/cv2.0/cv2.0.2/Conv_output_0: float16
    /model.22/cv3.0/cv3.0.1/act/Mul_output_0: float16
    /model.22/cv3.0/cv3.0.2/Conv_output_0: float16
    /model.22/dfl/Softmax_new: float16
    /model.22/dfl/conv/Conv_output_0: float16
    /model.22/Sigmoid_output_0: float16
    /model.22/Concat_5_swap_concat_reshape_i1_out: float16
    output0_shape4: float16
    output0_int8: float16
    output0: float16
quantize_parameters:
    images:
        qtype: asymmetric_quantized
        qmethod: layer
        dtype: float32
        min:
        -   0.0
        max:
        -   1.0
        scale: []
        zero_point: []
        ori_min:
        -   0.0
        ori_max:
        -   1.0
    /model.0/conv/Conv_output_0:
        qtype: asymmetric_quantized
        qmethod: layer
        dtype: int8
        min:
        -   -53.49042510986328
        max:
        -   58.8970947265625
        scale:
        -   0.4407353719075521
        zero_point:
        -   -7
        ori_min:
        -   -53.49042510986328
        ori_max:
        -   58.8970947265625
    /model.0/act/Mul_output_0:
        qtype: asymmetric_quantized
        qmethod: layer
        dtype: int8
        min:
        -   -0.27846458554267883
        max:
        -   58.8970947265625
        scale:
        -   0.23206101691021638
        zero_point:
        -   -127
        ori_min:
        -   -0.27846458554267883
        ori_max:
        -   58.8970947265625
    /model.1/conv/Conv_output_0:
        qtype: asymmetric_quantized
        qmethod: layer
        dtype: int8
        min:
        -   -148.36463928222656
        max:
        -   144.55435180664062
        scale:
        -   1.1487019258386948
        zero_point:
        -   1
        ori_min:
        -   -148.36463928222656
        ori_max:
        -   144.55435180664062
    /model.1/act/Mul_output_0:
        qtype: asymmetric_quantized
        qmethod: layer
        dtype: int8
        min:
        -   -0.27846458554267883
        max:
        -   144.55435180664062
        scale:
        -   0.5679718289889542
        zero_point:
        -   -128
        ori_min:
        -   -0.27846458554267883
        ori_max:
        -   144.55435180664062
    /model.2/cv1/conv/Conv_output_0:
        qtype: asymmetric_quantized
        qmethod: layer
        dtype: int8
        min:
        -   -97.51209259033203
        max:
        -   33.338687896728516
        scale:
        -   0.5131403156355315
        zero_point:
        -   62
        ori_min:
        -   -97.51209259033203
        ori_max:
        -   33.338687896728516
    /model.2/cv1/act/Mul_output_0:
        qtype: asymmetric_quantized
        qmethod: layer
        dtype: int8
        min:
        -   -0.27846458554267883
        max:
        -   33.338687896728516
        scale:
        -   0.13183197051871057
        zero_point:
        -   -126
        ori_min:
        -   -0.27846458554267883
        ori_max:
        -   33.338687896728516
    /model.2/Split_output_0:
        qtype: asymmetric_quantized
        qmethod: layer
        dtype: int8
        min:
        -   -0.27846458554267883
        max:
        -   33.338687896728516
        scale:
        -   0.13183197051871057
        zero_point:
        -   -126
        ori_min:
        -   -0.27846458554267883
        ori_max:
        -   33.338687896728516
    /model.2/Split_output_1:
        qtype: asymmetric_quantized
        qmethod: layer
        dtype: int8
        min:
        -   -0.27846458554267883
        max:
        -   19.974422454833984
        scale:
        -   0.07942308643284966
        zero_point:
        -   -124
        ori_min:
        -   -0.27846458554267883
        ori_max:
        -   19.974422454833984
    /model.2/m.0/cv1/conv/Conv_output_0:
        qtype: asymmetric_quantized
        qmethod: layer
        dtype: int8
        min:
        -   -39.31114959716797
        max:
        -   31.918176651000977
        scale:
        -   0.27933069116929
        zero_point:
        -   13
        ori_min:
        -   -39.31114959716797
        ori_max:
        -   31.918176651000977
    /model.2/m.0/cv1/act/Mul_output_0:
        qtype: asymmetric_quantized
        qmethod: layer
        dtype: int8
        min:
        -   -0.27846458554267883
        max:
        -   31.918176651000977
        scale:
        -   0.12626133818252414
        zero_point:
        -   -126
        ori_min:
        -   -0.27846458554267883
        ori_max:
        -   31.918176651000977
    /model.2/m.0/cv2/conv/Conv_output_0:
        qtype: asymmetric_quantized
        qmethod: layer
        dtype: int8
        min:
        -   -37.4675178527832
        max:
        -   36.832923889160156
        scale:
        -   0.29137428134095433
        zero_point:
        -   1
        ori_min:
        -   -37.4675178527832
        ori_max:
        -   36.832923889160156
    /model.2/m.0/cv2/act/Mul_output_0:
        qtype: asymmetric_quantized
        qmethod: layer
        dtype: int8
        min:
        -   -0.27846458554267883
        max:
        -   36.832923889160156
        scale:
        -   0.14553485676354053
        zero_point:
        -   -126
        ori_min:
        -   -0.27846458554267883
        ori_max:
        -   36.832923889160156
    /model.2/m.0/Add_output_0:
        qtype: asymmetric_quantized
        qmethod: layer
        dtype: int8
        min:
        -   -0.5569286346435547
        max:
        -   41.31766891479492
        scale:
        -   0.16421410803701364
        zero_point:
        -   -125
        ori_min:
        -   -0.5569286346435547
        ori_max:
        -   41.31766891479492
    /model.2/Concat_output_0:
        qtype: asymmetric_quantized
        qmethod: layer
        dtype: int8
        min:
        -   -0.5569286346435547
        max:
        -   41.31766891479492
        scale:
        -   0.16421410803701364
        zero_point:
        -   -125
        ori_min:
        -   -0.5569286346435547
        ori_max:
        -   41.31766891479492
    /model.2/cv2/conv/Conv_output_0:
        qtype: asymmetric_quantized
        qmethod: layer
        dtype: int8
        min:
        -   -30.465269088745117
        max:
        -   20.283422470092773
        scale:
        -   0.19901447670132505
        zero_point:
        -   25
        ori_min:
        -   -30.465269088745117
        ori_max:
        -   20.283422470092773
    /model.2/cv2/act/Mul_output_0:
        qtype: asymmetric_quantized
        qmethod: layer
        dtype: int8
        min:
        -   -0.27846458554267883
        max:
        -   20.283422470092773
        scale:
        -   0.0806348511985704
        zero_point:
        -   -125
        ori_min:
        -   -0.27846458554267883
        ori_max:
        -   20.283422470092773
    /model.3/conv/Conv_output_0:
        qtype: asymmetric_quantized
        qmethod: layer
        dtype: int8
        min:
        -   -12.409747123718262
        max:
        -   8.415924072265625
        scale:
        -   0.08166929880777994
        zero_point:
        -   24
        ori_min:
        -   -12.409747123718262
        ori_max:
        -   8.415924072265625
    /model.3/act/Mul_output_0:
        qtype: asymmetric_quantized
        qmethod: layer
        dtype: int8
        min:
        -   -0.27846458554267883
        max:
        -   8.414061546325684
        scale:
        -   0.034088337772032795
        zero_point:
        -   -120
        ori_min:
        -   -0.27846458554267883
        ori_max:
        -   8.414061546325684
    /model.4/cv1/conv/Conv_output_0:
        qtype: asymmetric_quantized
        qmethod: layer
        dtype: int8
        min:
        -   -13.423543930053711
        max:
        -   10.308185577392578
        scale:
        -   0.09306560591155408
        zero_point:
        -   16
        ori_min:
        -   -13.423543930053711
        ori_max:
        -   10.308185577392578
    /model.4/cv1/act/Mul_output_0:
        qtype: asymmetric_quantized
        qmethod: layer
        dtype: int8
        min:
        -   -0.27846458554267883
        max:
        -   10.307841300964355
        scale:
        -   0.04151492504512563
        zero_point:
        -   -121
        ori_min:
        -   -0.27846458554267883
        ori_max:
        -   10.307841300964355
    /model.4/Split_output_0:
        qtype: asymmetric_quantized
        qmethod: layer
        dtype: int8
        min:
        -   -0.27846458554267883
        max:
        -   10.307841300964355
        scale:
        -   0.04151492504512563
        zero_point:
        -   -121
        ori_min:
        -   -0.27846458554267883
        ori_max:
        -   10.307841300964355
    /model.4/Split_output_1:
        qtype: asymmetric_quantized
        qmethod: layer
        dtype: int8
        min:
        -   -0.27846458554267883
        max:
        -   4.727099418640137
        scale:
        -   0.019629662761501236
        zero_point:
        -   -114
        ori_min:
        -   -0.27846458554267883
        ori_max:
        -   4.727099418640137
    /model.4/m.0/cv1/conv/Conv_output_0:
        qtype: asymmetric_quantized
        qmethod: layer
        dtype: int8
        min:
        -   -7.994256973266602
        max:
        -   5.499676704406738
        scale:
        -   0.052917386971268
        zero_point:
        -   23
        ori_min:
        -   -7.994256973266602
        ori_max:
        -   5.499676704406738
    /model.4/m.0/cv1/act/Mul_output_0:
        qtype: asymmetric_quantized
        qmethod: layer
        dtype: int8
        min:
        -   -0.27846458554267883
        max:
        -   5.477285385131836
        scale:
        -   0.022571568512449076
        zero_point:
        -   -116
        ori_min:
        -   -0.27846458554267883
        ori_max:
        -   5.477285385131836
    /model.4/m.0/cv2/conv/Conv_output_0:
        qtype: asymmetric_quantized
        qmethod: layer
        dtype: int8
        min:
        -   -8.579383850097656
        max:
        -   6.416485786437988
        scale:
        -   0.05880733190798292
        zero_point:
        -   18
        ori_min:
        -   -8.579383850097656
        ori_max:
        -   6.416485786437988
    /model.4/m.0/cv2/act/Mul_output_0:
        qtype: asymmetric_quantized
        qmethod: layer
        dtype: int8
        min:
        -   -0.27846455574035645
        max:
        -   6.4060163497924805
        scale:
        -   0.026213650609932693
        zero_point:
        -   -117
        ori_min:
        -   -0.27846455574035645
        ori_max:
        -   6.4060163497924805
    /model.4/m.0/Add_output_0:
        qtype: asymmetric_quantized
        qmethod: layer
        dtype: int8
        min:
        -   -0.5569291114807129
        max:
        -   7.984443664550781
        scale:
        -   0.033495579513848996
        zero_point:
        -   -111
        ori_min:
        -   -0.5569291114807129
        ori_max:
        -   7.984443664550781
    /model.4/m.1/cv1/conv/Conv_output_0:
        qtype: asymmetric_quantized
        qmethod: layer
        dtype: int8
        min:
        -   -8.932930946350098
        max:
        -   6.079011917114258
        scale:
        -   0.058870364170448455
        zero_point:
        -   24
        ori_min:
        -   -8.932930946350098
        ori_max:
        -   6.079011917114258
    /model.4/m.1/cv1/act/Mul_output_0:
        qtype: asymmetric_quantized
        qmethod: layer
        dtype: int8
        min:
        -   -0.27846458554267883
        max:
        -   6.065119743347168
        scale:
        -   0.024876801289764106
        zero_point:
        -   -117
        ori_min:
        -   -0.27846458554267883
        ori_max:
        -   6.065119743347168
    /model.4/m.1/cv2/conv/Conv_output_0:
        qtype: asymmetric_quantized
        qmethod: layer
        dtype: int8
        min:
        -   -13.244115829467773
        max:
        -   13.53664779663086
        scale:
        -   0.10502260245528876
        zero_point:
        -   -2
        ori_min:
        -   -13.244115829467773
        ori_max:
        -   13.53664779663086
    /model.4/m.1/cv2/act/Mul_output_0:
        qtype: asymmetric_quantized
        qmethod: layer
        dtype: int8
        min:
        -   -0.27846458554267883
        max:
        -   13.536629676818848
        scale:
        -   0.054176840244555005
        zero_point:
        -   -123
        ori_min:
        -   -0.27846458554267883
        ori_max:
        -   13.536629676818848
    /model.4/m.1/Add_output_0:
        qtype: asymmetric_quantized
        qmethod: layer
        dtype: int8
        min:
        -   -0.8353111147880554
        max:
        -   13.983383178710938
        scale:
        -   0.05811252664117252
        zero_point:
        -   -114
        ori_min:
        -   -0.8353111147880554
        ori_max:
        -   13.983383178710938
    /model.4/Concat_output_0:
        qtype: asymmetric_quantized
        qmethod: layer
        dtype: int8
        min:
        -   -0.8353111147880554
        max:
        -   13.983383178710938
        scale:
        -   0.05811252664117252
        zero_point:
        -   -114
        ori_min:
        -   -0.8353111147880554
        ori_max:
        -   13.983383178710938
    /model.4/cv2/conv/Conv_output_0:
        qtype: asymmetric_quantized
        qmethod: layer
        dtype: int8
        min:
        -   -12.264298439025879
        max:
        -   9.803061485290527
        scale:
        -   0.08653866636986826
        zero_point:
        -   14
        ori_min:
        -   -12.264298439025879
        ori_max:
        -   9.803061485290527
    /model.4/cv2/act/Mul_output_0:
        qtype: asymmetric_quantized
        qmethod: layer
        dtype: int8
        min:
        -   -0.27846458554267883
        max:
        -   9.802518844604492
        scale:
        -   0.039533268353518315
        zero_point:
        -   -121
        ori_min:
        -   -0.27846458554267883
        ori_max:
        -   9.802518844604492
    /model.5/conv/Conv_output_0:
        qtype: asymmetric_quantized
        qmethod: layer
        dtype: int8
        min:
        -   -15.671393394470215
        max:
        -   8.423840522766113
        scale:
        -   0.09449111340092678
        zero_point:
        -   38
        ori_min:
        -   -15.671393394470215
        ori_max:
        -   8.423840522766113
    /model.5/act/Mul_output_0:
        qtype: asymmetric_quantized
        qmethod: layer
        dtype: int8
        min:
        -   -0.27846458554267883
        max:
        -   8.421991348266602
        scale:
        -   0.034119435034546196
        zero_point:
        -   -120
        ori_min:
        -   -0.27846458554267883
        ori_max:
        -   8.421991348266602
    /model.6/cv1/conv/Conv_output_0:
        qtype: asymmetric_quantized
        qmethod: layer
        dtype: int8
        min:
        -   -11.852806091308594
        max:
        -   10.122589111328125
        scale:
        -   0.08617802040249693
        zero_point:
        -   10
        ori_min:
        -   -11.852806091308594
        ori_max:
        -   10.122589111328125
    /model.6/cv1/act/Mul_output_0:
        qtype: asymmetric_quantized
        qmethod: layer
        dtype: int8
        min:
        -   -0.27846458554267883
        max:
        -   10.122182846069336
        scale:
        -   0.040786852672988295
        zero_point:
        -   -121
        ori_min:
        -   -0.27846458554267883
        ori_max:
        -   10.122182846069336
    /model.6/Split_output_0:
        qtype: asymmetric_quantized
        qmethod: layer
        dtype: int8
        min:
        -   -0.27846455574035645
        max:
        -   10.122182846069336
        scale:
        -   0.04078685255611644
        zero_point:
        -   -121
        ori_min:
        -   -0.27846455574035645
        ori_max:
        -   10.122182846069336
    /model.6/Split_output_1:
        qtype: asymmetric_quantized
        qmethod: layer
        dtype: int8
        min:
        -   -0.27846458554267883
        max:
        -   4.909632205963135
        scale:
        -   0.02034547761374829
        zero_point:
        -   -114
        ori_min:
        -   -0.27846458554267883
        ori_max:
        -   4.909632205963135
    /model.6/m.0/cv1/conv/Conv_output_0:
        qtype: asymmetric_quantized
        qmethod: layer
        dtype: int8
        min:
        -   -10.983718872070312
        max:
        -   9.017879486083984
        scale:
        -   0.07843764062021293
        zero_point:
        -   12
        ori_min:
        -   -10.983718872070312
        ori_max:
        -   9.017879486083984
    /model.6/m.0/cv1/act/Mul_output_0:
        qtype: asymmetric_quantized
        qmethod: layer
        dtype: int8
        min:
        -   -0.27846458554267883
        max:
        -   9.016786575317383
        scale:
        -   0.036451965336706124
        zero_point:
        -   -120
        ori_min:
        -   -0.27846458554267883
        ori_max:
        -   9.016786575317383
    /model.6/m.0/cv2/conv/Conv_output_0:
        qtype: asymmetric_quantized
        qmethod: layer
        dtype: int8
        min:
        -   -8.53039836883545
        max:
        -   6.953226089477539
        scale:
        -   0.06072009591495289
        zero_point:
        -   12
        ori_min:
        -   -8.53039836883545
        ori_max:
        -   6.953226089477539
    /model.6/m.0/cv2/act/Mul_output_0:
        qtype: asymmetric_quantized
        qmethod: layer
        dtype: int8
        min:
        -   -0.27846458554267883
        max:
        -   6.946588039398193
        scale:
        -   0.02833353970565048
        zero_point:
        -   -118
        ori_min:
        -   -0.27846458554267883
        ori_max:
        -   6.946588039398193
    /model.6/m.0/Add_output_0:
        qtype: asymmetric_quantized
        qmethod: layer
        dtype: int8
        min:
        -   -0.5569287538528442
        max:
        -   9.24336051940918
        scale:
        -   0.03843250695396872
        zero_point:
        -   -114
        ori_min:
        -   -0.5569287538528442
        ori_max:
        -   9.24336051940918
    /model.6/m.1/cv1/conv/Conv_output_0:
        qtype: asymmetric_quantized
        qmethod: layer
        dtype: int8
        min:
        -   -9.580541610717773
        max:
        -   8.95915699005127
        scale:
        -   0.07270470039517271
        zero_point:
        -   4
        ori_min:
        -   -9.580541610717773
        ori_max:
        -   8.95915699005127
    /model.6/m.1/cv1/act/Mul_output_0:
        qtype: asymmetric_quantized
        qmethod: layer
        dtype: int8
        min:
        -   -0.27846458554267883
        max:
        -   8.958005905151367
        scale:
        -   0.03622145290468253
        zero_point:
        -   -120
        ori_min:
        -   -0.27846458554267883
        ori_max:
        -   8.958005905151367
    /model.6/m.1/cv2/conv/Conv_output_0:
        qtype: asymmetric_quantized
        qmethod: layer
        dtype: int8
        min:
        -   -17.57688331604004
        max:
        -   23.0621337890625
        scale:
        -   0.1593686945298139
        zero_point:
        -   -18
        ori_min:
        -   -17.57688331604004
        ori_max:
        -   23.0621337890625
    /model.6/m.1/cv2/act/Mul_output_0:
        qtype: asymmetric_quantized
        qmethod: layer
        dtype: int8
        min:
        -   -0.27846455574035645
        max:
        -   23.0621337890625
        scale:
        -   0.09153175821491316
        zero_point:
        -   -125
        ori_min:
        -   -0.27846455574035645
        ori_max:
        -   23.0621337890625
    /model.6/m.1/Add_output_0:
        qtype: asymmetric_quantized
        qmethod: layer
        dtype: int8
        min:
        -   -0.835271954536438
        max:
        -   23.46856117248535
        scale:
        -   0.0953091495177325
        zero_point:
        -   -119
        ori_min:
        -   -0.835271954536438
        ori_max:
        -   23.46856117248535
    /model.6/Concat_output_0:
        qtype: asymmetric_quantized
        qmethod: layer
        dtype: int8
        min:
        -   -0.835271954536438
        max:
        -   23.46856117248535
        scale:
        -   0.0953091495177325
        zero_point:
        -   -119
        ori_min:
        -   -0.835271954536438
        ori_max:
        -   23.46856117248535
    /model.6/cv2/conv/Conv_output_0:
        qtype: asymmetric_quantized
        qmethod: layer
        dtype: int8
        min:
        -   -9.195703506469727
        max:
        -   8.881932258605957
        scale:
        -   0.0708926892748066
        zero_point:
        -   2
        ori_min:
        -   -9.195703506469727
        ori_max:
        -   8.881932258605957
    /model.6/cv2/act/Mul_output_0:
        qtype: asymmetric_quantized
        qmethod: layer
        dtype: int8
        min:
        -   -0.27846458554267883
        max:
        -   8.880699157714844
        scale:
        -   0.03591828918924519
        zero_point:
        -   -120
        ori_min:
        -   -0.27846458554267883
        ori_max:
        -   8.880699157714844
    /model.7/conv/Conv_output_0:
        qtype: asymmetric_quantized
        qmethod: layer
        dtype: int8
        min:
        -   -10.045872688293457
        max:
        -   8.073055267333984
        scale:
        -   0.07105461943383311
        zero_point:
        -   13
        ori_min:
        -   -10.045872688293457
        ori_max:
        -   8.073055267333984
    /model.7/act/Mul_output_0:
        qtype: asymmetric_quantized
        qmethod: layer
        dtype: int8
        min:
        -   -0.27846455574035645
        max:
        -   8.070538520812988
        scale:
        -   0.03274118853550331
        zero_point:
        -   -119
        ori_min:
        -   -0.27846455574035645
        ori_max:
        -   8.070538520812988
    /model.8/cv1/conv/Conv_output_0:
        qtype: asymmetric_quantized
        qmethod: layer
        dtype: int8
        min:
        -   -14.578500747680664
        max:
        -   12.078059196472168
        scale:
        -   0.1045355291927562
        zero_point:
        -   11
        ori_min:
        -   -14.578500747680664
        ori_max:
        -   12.078059196472168
    /model.8/cv1/act/Mul_output_0:
        qtype: asymmetric_quantized
        qmethod: layer
        dtype: int8
        min:
        -   -0.27846458554267883
        max:
        -   12.077990531921387
        scale:
        -   0.0484566867351532
        zero_point:
        -   -122
        ori_min:
        -   -0.27846458554267883
        ori_max:
        -   12.077990531921387
    /model.8/Split_output_0:
        qtype: asymmetric_quantized
        qmethod: layer
        dtype: int8
        min:
        -   -0.27846458554267883
        max:
        -   12.077990531921387
        scale:
        -   0.0484566867351532
        zero_point:
        -   -122
        ori_min:
        -   -0.27846458554267883
        ori_max:
        -   12.077990531921387
    /model.8/Split_output_1:
        qtype: asymmetric_quantized
        qmethod: layer
        dtype: int8
        min:
        -   -0.27846455574035645
        max:
        -   8.459842681884766
        scale:
        -   0.03426787152009852
        zero_point:
        -   -120
        ori_min:
        -   -0.27846455574035645
        ori_max:
        -   8.459842681884766
    /model.8/m.0/cv1/conv/Conv_output_0:
        qtype: asymmetric_quantized
        qmethod: layer
        dtype: int8
        min:
        -   -10.85563850402832
        max:
        -   12.606218338012695
        scale:
        -   0.09200728173349418
        zero_point:
        -   -10
        ori_min:
        -   -10.85563850402832
        ori_max:
        -   12.606218338012695
    /model.8/m.0/cv1/act/Mul_output_0:
        qtype: asymmetric_quantized
        qmethod: layer
        dtype: int8
        min:
        -   -0.27846455574035645
        max:
        -   12.606176376342773
        scale:
        -   0.05052800365522796
        zero_point:
        -   -122
        ori_min:
        -   -0.27846455574035645
        ori_max:
        -   12.606176376342773
    /model.8/m.0/cv2/conv/Conv_output_0:
        qtype: asymmetric_quantized
        qmethod: layer
        dtype: int8
        min:
        -   -16.368261337280273
        max:
        -   14.155128479003906
        scale:
        -   0.11969956790699679
        zero_point:
        -   9
        ori_min:
        -   -16.368261337280273
        ori_max:
        -   14.155128479003906
    /model.8/m.0/cv2/act/Mul_output_0:
        qtype: asymmetric_quantized
        qmethod: layer
        dtype: int8
        min:
        -   -0.27846458554267883
        max:
        -   14.155117988586426
        scale:
        -   0.056602284604427865
        zero_point:
        -   -123
        ori_min:
        -   -0.27846458554267883
        ori_max:
        -   14.155117988586426
    /model.8/m.0/Add_output_0:
        qtype: asymmetric_quantized
        qmethod: layer
        dtype: int8
        min:
        -   -0.5569287538528442
        max:
        -   13.99772834777832
        scale:
        -   0.05707708667306339
        zero_point:
        -   -118
        ori_min:
        -   -0.5569287538528442
        ori_max:
        -   13.99772834777832
    /model.8/Concat_output_0:
        qtype: asymmetric_quantized
        qmethod: layer
        dtype: int8
        min:
        -   -0.5569287538528442
        max:
        -   13.99772834777832
        scale:
        -   0.05707708667306339
        zero_point:
        -   -118
        ori_min:
        -   -0.5569287538528442
        ori_max:
        -   13.99772834777832
    /model.8/cv2/conv/Conv_output_0:
        qtype: asymmetric_quantized
        qmethod: layer
        dtype: int8
        min:
        -   -11.44955825805664
        max:
        -   10.211427688598633
        scale:
        -   0.08494504292805989
        zero_point:
        -   7
        ori_min:
        -   -11.44955825805664
        ori_max:
        -   10.211427688598633
    /model.8/cv2/act/Mul_output_0:
        qtype: asymmetric_quantized
        qmethod: layer
        dtype: int8
        min:
        -   -0.27846458554267883
        max:
        -   10.211052894592285
        scale:
        -   0.04113536266719594
        zero_point:
        -   -121
        ori_min:
        -   -0.27846458554267883
        ori_max:
        -   10.211052894592285
    /model.9/cv1/conv/Conv_output_0:
        qtype: asymmetric_quantized
        qmethod: layer
        dtype: int8
        min:
        -   -6.4209184646606445
        max:
        -   10.107839584350586
        scale:
        -   0.06481865901573032
        zero_point:
        -   -29
        ori_min:
        -   -6.4209184646606445
        ori_max:
        -   10.107839584350586
    /model.9/cv1/act/Mul_output_0:
        qtype: asymmetric_quantized
        qmethod: layer
        dtype: int8
        min:
        -   -0.27846455574035645
        max:
        -   10.107427597045898
        scale:
        -   0.0407289888344559
        zero_point:
        -   -121
        ori_min:
        -   -0.27846455574035645
        ori_max:
        -   10.107427597045898
    /model.9/m/MaxPool_output_0:
        qtype: asymmetric_quantized
        qmethod: layer
        dtype: int8
        min:
        -   -0.27846455574035645
        max:
        -   10.107427597045898
        scale:
        -   0.0407289888344559
        zero_point:
        -   -121
        ori_min:
        -   -0.2733101546764374
        ori_max:
        -   10.107427597045898
    /model.9/m_1/MaxPool_output_0:
        qtype: asymmetric_quantized
        qmethod: layer
        dtype: int8
        min:
        -   -0.27846455574035645
        max:
        -   10.107427597045898
        scale:
        -   0.0407289888344559
        zero_point:
        -   -121
        ori_min:
        -   -0.2317158430814743
        ori_max:
        -   10.107427597045898
    /model.9/m_2/MaxPool_output_0:
        qtype: asymmetric_quantized
        qmethod: layer
        dtype: int8
        min:
        -   -0.27846455574035645
        max:
        -   10.107427597045898
        scale:
        -   0.0407289888344559
        zero_point:
        -   -121
        ori_min:
        -   -0.1879914253950119
        ori_max:
        -   10.107427597045898
    /model.9/Concat_output_0:
        qtype: asymmetric_quantized
        qmethod: layer
        dtype: int8
        min:
        -   -0.27846455574035645
        max:
        -   10.107427597045898
        scale:
        -   0.0407289888344559
        zero_point:
        -   -121
        ori_min:
        -   -0.27846455574035645
        ori_max:
        -   10.107427597045898
    /model.9/cv2/conv/Conv_output_0:
        qtype: asymmetric_quantized
        qmethod: layer
        dtype: int8
        min:
        -   -9.476810455322266
        max:
        -   11.10430908203125
        scale:
        -   0.08071027269550399
        zero_point:
        -   -11
        ori_min:
        -   -9.476810455322266
        ori_max:
        -   11.10430908203125
    /model.9/cv2/act/Mul_output_0:
        qtype: asymmetric_quantized
        qmethod: layer
        dtype: int8
        min:
        -   -0.27846458554267883
        max:
        -   11.104142189025879
        scale:
        -   0.04463767362575905
        zero_point:
        -   -122
        ori_min:
        -   -0.27846458554267883
        ori_max:
        -   11.104142189025879
    /model.10/Resize_output_0:
        qtype: asymmetric_quantized
        qmethod: layer
        dtype: int8
        min:
        -   -0.27846458554267883
        max:
        -   11.104142189025879
        scale:
        -   0.04463767362575905
        zero_point:
        -   -122
        ori_min:
        -   -0.27846458554267883
        ori_max:
        -   11.104142189025879
    /model.11/Concat_output_0:
        qtype: asymmetric_quantized
        qmethod: layer
        dtype: int8
        min:
        -   -0.27846458554267883
        max:
        -   11.104142189025879
        scale:
        -   0.04463767362575905
        zero_point:
        -   -122
        ori_min:
        -   -0.27846458554267883
        ori_max:
        -   11.104142189025879
    /model.12/cv1/conv/Conv_output_0:
        qtype: asymmetric_quantized
        qmethod: layer
        dtype: int8
        min:
        -   -9.459687232971191
        max:
        -   11.216315269470215
        scale:
        -   0.08108236275467218
        zero_point:
        -   -11
        ori_min:
        -   -9.459687232971191
        ori_max:
        -   11.216315269470215
    /model.12/cv1/act/Mul_output_0:
        qtype: asymmetric_quantized
        qmethod: layer
        dtype: int8
        min:
        -   -0.27846458554267883
        max:
        -   11.216164588928223
        scale:
        -   0.045076977154787846
        zero_point:
        -   -122
        ori_min:
        -   -0.27846458554267883
        ori_max:
        -   11.216164588928223
    /model.12/Split_output_0:
        qtype: asymmetric_quantized
        qmethod: layer
        dtype: int8
        min:
        -   -0.27846458554267883
        max:
        -   11.216164588928223
        scale:
        -   0.045076977154787846
        zero_point:
        -   -122
        ori_min:
        -   -0.27846458554267883
        ori_max:
        -   11.216164588928223
    /model.12/Split_output_1:
        qtype: asymmetric_quantized
        qmethod: layer
        dtype: int8
        min:
        -   -0.27846455574035645
        max:
        -   6.670307159423828
        scale:
        -   0.027250085157506605
        zero_point:
        -   -118
        ori_min:
        -   -0.27846455574035645
        ori_max:
        -   6.670307159423828
    /model.12/m.0/cv1/conv/Conv_output_0:
        qtype: asymmetric_quantized
        qmethod: layer
        dtype: int8
        min:
        -   -10.991759300231934
        max:
        -   6.910552501678467
        scale:
        -   0.07020514432121726
        zero_point:
        -   29
        ori_min:
        -   -10.991759300231934
        ori_max:
        -   6.910552501678467
    /model.12/m.0/cv1/act/Mul_output_0:
        qtype: asymmetric_quantized
        qmethod: layer
        dtype: int8
        min:
        -   -0.27846458554267883
        max:
        -   6.903668403625488
        scale:
        -   0.028165227408502615
        zero_point:
        -   -118
        ori_min:
        -   -0.27846458554267883
        ori_max:
        -   6.903668403625488
    /model.12/m.0/cv2/conv/Conv_output_0:
        qtype: asymmetric_quantized
        qmethod: layer
        dtype: int8
        min:
        -   -10.199234008789062
        max:
        -   10.887825012207031
        scale:
        -   0.08269434910194547
        zero_point:
        -   -5
        ori_min:
        -   -10.199234008789062
        ori_max:
        -   10.887825012207031
    /model.12/m.0/cv2/act/Mul_output_0:
        qtype: asymmetric_quantized
        qmethod: layer
        dtype: int8
        min:
        -   -0.27846458554267883
        max:
        -   10.88762092590332
        scale:
        -   0.04378857063312157
        zero_point:
        -   -122
        ori_min:
        -   -0.27846458554267883
        ori_max:
        -   10.88762092590332
    /model.12/Concat_output_0:
        qtype: asymmetric_quantized
        qmethod: layer
        dtype: int8
        min:
        -   -0.27846458554267883
        max:
        -   11.216164588928223
        scale:
        -   0.045076977154787846
        zero_point:
        -   -122
        ori_min:
        -   -0.27846458554267883
        ori_max:
        -   11.216164588928223
    /model.12/cv2/conv/Conv_output_0:
        qtype: asymmetric_quantized
        qmethod: layer
        dtype: int8
        min:
        -   -15.370646476745605
        max:
        -   7.958584785461426
        scale:
        -   0.09148718142041973
        zero_point:
        -   40
        ori_min:
        -   -15.370646476745605
        ori_max:
        -   7.958584785461426
    /model.12/cv2/act/Mul_output_0:
        qtype: asymmetric_quantized
        qmethod: layer
        dtype: int8
        min:
        -   -0.27846455574035645
        max:
        -   7.955802917480469
        scale:
        -   0.03229124499302284
        zero_point:
        -   -119
        ori_min:
        -   -0.27846455574035645
        ori_max:
        -   7.955802917480469
    /model.13/Resize_output_0:
        qtype: asymmetric_quantized
        qmethod: layer
        dtype: int8
        min:
        -   -0.27846455574035645
        max:
        -   7.955802917480469
        scale:
        -   0.03229124499302284
        zero_point:
        -   -119
        ori_min:
        -   -0.27846455574035645
        ori_max:
        -   7.955802917480469
    /model.14/Concat_output_0:
        qtype: asymmetric_quantized
        qmethod: layer
        dtype: int8
        min:
        -   -0.27846458554267883
        max:
        -   9.802518844604492
        scale:
        -   0.039533268353518315
        zero_point:
        -   -121
        ori_min:
        -   -0.27846458554267883
        ori_max:
        -   9.802518844604492
    /model.15/cv1/conv/Conv_output_0:
        qtype: asymmetric_quantized
        qmethod: layer
        dtype: int8
        min:
        -   -11.404808044433594
        max:
        -   5.222897529602051
        scale:
        -   0.06520668852562998
        zero_point:
        -   47
        ori_min:
        -   -11.404808044433594
        ori_max:
        -   5.222897529602051
    /model.15/cv1/act/Mul_output_0:
        qtype: asymmetric_quantized
        qmethod: layer
        dtype: int8
        min:
        -   -0.27846458554267883
        max:
        -   5.194888114929199
        scale:
        -   0.02146412823714462
        zero_point:
        -   -115
        ori_min:
        -   -0.27846458554267883
        ori_max:
        -   5.194888114929199
    /model.15/Split_output_0:
        qtype: asymmetric_quantized
        qmethod: layer
        dtype: int8
        min:
        -   -0.27846458554267883
        max:
        -   5.194888114929199
        scale:
        -   0.02146412823714462
        zero_point:
        -   -115
        ori_min:
        -   -0.27846458554267883
        ori_max:
        -   5.194888114929199
    /model.15/Split_output_1:
        qtype: asymmetric_quantized
        qmethod: layer
        dtype: int8
        min:
        -   -0.27846458554267883
        max:
        -   5.0370049476623535
        scale:
        -   0.020844978561588363
        zero_point:
        -   -115
        ori_min:
        -   -0.27846458554267883
        ori_max:
        -   5.0370049476623535
    /model.15/m.0/cv1/conv/Conv_output_0:
        qtype: asymmetric_quantized
        qmethod: layer
        dtype: int8
        min:
        -   -6.160008430480957
        max:
        -   4.931707859039307
        scale:
        -   0.043496926625569664
        zero_point:
        -   14
        ori_min:
        -   -6.160008430480957
        ori_max:
        -   4.931707859039307
    /model.15/m.0/cv1/act/Mul_output_0:
        qtype: asymmetric_quantized
        qmethod: layer
        dtype: int8
        min:
        -   -0.27846458554267883
        max:
        -   4.896384239196777
        scale:
        -   0.020293524802899827
        zero_point:
        -   -114
        ori_min:
        -   -0.27846458554267883
        ori_max:
        -   4.896384239196777
    /model.15/m.0/cv2/conv/Conv_output_0:
        qtype: asymmetric_quantized
        qmethod: layer
        dtype: int8
        min:
        -   -9.516326904296875
        max:
        -   8.530522346496582
        scale:
        -   0.07077195784624885
        zero_point:
        -   6
        ori_min:
        -   -9.516326904296875
        ori_max:
        -   8.530522346496582
    /model.15/m.0/cv2/act/Mul_output_0:
        qtype: asymmetric_quantized
        qmethod: layer
        dtype: int8
        min:
        -   -0.27846458554267883
        max:
        -   8.528839111328125
        scale:
        -   0.034538445870081584
        zero_point:
        -   -120
        ori_min:
        -   -0.27846458554267883
        ori_max:
        -   8.528839111328125
    /model.15/Concat_output_0:
        qtype: asymmetric_quantized
        qmethod: layer
        dtype: int8
        min:
        -   -0.27846458554267883
        max:
        -   8.528839111328125
        scale:
        -   0.034538445870081584
        zero_point:
        -   -120
        ori_min:
        -   -0.27846458554267883
        ori_max:
        -   8.528839111328125
    /model.15/cv2/conv/Conv_output_0:
        qtype: asymmetric_quantized
        qmethod: layer
        dtype: int8
        min:
        -   -9.536067962646484
        max:
        -   6.781136989593506
        scale:
        -   0.06398903902839212
        zero_point:
        -   21
        ori_min:
        -   -9.536067962646484
        ori_max:
        -   6.781136989593506
    /model.15/cv2/act/Mul_output_0:
        qtype: asymmetric_quantized
        qmethod: layer
        dtype: int8
        min:
        -   -0.27846458554267883
        max:
        -   6.773449420928955
        scale:
        -   0.027654564731261308
        zero_point:
        -   -118
        ori_min:
        -   -0.27846458554267883
        ori_max:
        -   6.773449420928955
    /model.16/conv/Conv_output_0:
        qtype: asymmetric_quantized
        qmethod: layer
        dtype: int8
        min:
        -   -10.724124908447266
        max:
        -   9.374308586120605
        scale:
        -   0.07881738625320733
        zero_point:
        -   8
        ori_min:
        -   -10.724124908447266
        ori_max:
        -   9.374308586120605
    /model.16/act/Mul_output_0:
        qtype: asymmetric_quantized
        qmethod: layer
        dtype: int8
        min:
        -   -0.27846458554267883
        max:
        -   9.373513221740723
        scale:
        -   0.03785089336189569
        zero_point:
        -   -121
        ori_min:
        -   -0.27846458554267883
        ori_max:
        -   9.373513221740723
    /model.17/Concat_output_0:
        qtype: asymmetric_quantized
        qmethod: layer
        dtype: int8
        min:
        -   -0.27846458554267883
        max:
        -   9.373513221740723
        scale:
        -   0.03785089336189569
        zero_point:
        -   -121
        ori_min:
        -   -0.27846458554267883
        ori_max:
        -   9.373513221740723
    /model.18/cv1/conv/Conv_output_0:
        qtype: asymmetric_quantized
        qmethod: layer
        dtype: int8
        min:
        -   -12.965951919555664
        max:
        -   8.455831527709961
        scale:
        -   0.08400699391084558
        zero_point:
        -   26
        ori_min:
        -   -12.965951919555664
        ori_max:
        -   8.455831527709961
    /model.18/cv1/act/Mul_output_0:
        qtype: asymmetric_quantized
        qmethod: layer
        dtype: int8
        min:
        -   -0.27846458554267883
        max:
        -   8.454033851623535
        scale:
        -   0.034245091910455744
        zero_point:
        -   -120
        ori_min:
        -   -0.27846458554267883
        ori_max:
        -   8.454033851623535
    /model.18/Split_output_0:
        qtype: asymmetric_quantized
        qmethod: layer
        dtype: int8
        min:
        -   -0.27846458554267883
        max:
        -   8.454033851623535
        scale:
        -   0.034245091910455744
        zero_point:
        -   -120
        ori_min:
        -   -0.27846458554267883
        ori_max:
        -   8.454033851623535
    /model.18/Split_output_1:
        qtype: asymmetric_quantized
        qmethod: layer
        dtype: int8
        min:
        -   -0.27846455574035645
        max:
        -   7.972629547119141
        scale:
        -   0.0323572317759196
        zero_point:
        -   -119
        ori_min:
        -   -0.27846455574035645
        ori_max:
        -   7.972629547119141
    /model.18/m.0/cv1/conv/Conv_output_0:
        qtype: asymmetric_quantized
        qmethod: layer
        dtype: int8
        min:
        -   -7.951289176940918
        max:
        -   5.528650760650635
        scale:
        -   0.052862509559182556
        zero_point:
        -   22
        ori_min:
        -   -7.951289176940918
        ori_max:
        -   5.528650760650635
    /model.18/m.0/cv1/act/Mul_output_0:
        qtype: asymmetric_quantized
        qmethod: layer
        dtype: int8
        min:
        -   -0.27846458554267883
        max:
        -   5.506781578063965
        scale:
        -   0.022687239857280956
        zero_point:
        -   -116
        ori_min:
        -   -0.27846458554267883
        ori_max:
        -   5.506781578063965
    /model.18/m.0/cv2/conv/Conv_output_0:
        qtype: asymmetric_quantized
        qmethod: layer
        dtype: int8
        min:
        -   -15.91203498840332
        max:
        -   14.411970138549805
        scale:
        -   0.11891766716452205
        zero_point:
        -   6
        ori_min:
        -   -15.91203498840332
        ori_max:
        -   14.411970138549805
    /model.18/m.0/cv2/act/Mul_output_0:
        qtype: asymmetric_quantized
        qmethod: layer
        dtype: int8
        min:
        -   -0.27846458554267883
        max:
        -   14.411961555480957
        scale:
        -   0.057609514278524065
        zero_point:
        -   -123
        ori_min:
        -   -0.27846458554267883
        ori_max:
        -   14.411961555480957
    /model.18/Concat_output_0:
        qtype: asymmetric_quantized
        qmethod: layer
        dtype: int8
        min:
        -   -0.27846458554267883
        max:
        -   14.411961555480957
        scale:
        -   0.057609514278524065
        zero_point:
        -   -123
        ori_min:
        -   -0.27846458554267883
        ori_max:
        -   14.411961555480957
    /model.18/cv2/conv/Conv_output_0:
        qtype: asymmetric_quantized
        qmethod: layer
        dtype: int8
        min:
        -   -15.076044082641602
        max:
        -   7.925899028778076
        scale:
        -   0.0902036984761556
        zero_point:
        -   39
        ori_min:
        -   -15.076044082641602
        ori_max:
        -   7.925899028778076
    /model.18/cv2/act/Mul_output_0:
        qtype: asymmetric_quantized
        qmethod: layer
        dtype: int8
        min:
        -   -0.27846458554267883
        max:
        -   7.923036098480225
        scale:
        -   0.032162747780481976
        zero_point:
        -   -119
        ori_min:
        -   -0.27846458554267883
        ori_max:
        -   7.923036098480225
    /model.19/conv/Conv_output_0:
        qtype: asymmetric_quantized
        qmethod: layer
        dtype: int8
        min:
        -   -14.006279945373535
        max:
        -   10.18321704864502
        scale:
        -   0.09486077252556296
        zero_point:
        -   20
        ori_min:
        -   -14.006279945373535
        ori_max:
        -   10.18321704864502
    /model.19/act/Mul_output_0:
        qtype: asymmetric_quantized
        qmethod: layer
        dtype: int8
        min:
        -   -0.27846458554267883
        max:
        -   10.182831764221191
        scale:
        -   0.04102469156770145
        zero_point:
        -   -121
        ori_min:
        -   -0.27846458554267883
        ori_max:
        -   10.182831764221191
    /model.20/Concat_output_0:
        qtype: asymmetric_quantized
        qmethod: layer
        dtype: int8
        min:
        -   -0.27846458554267883
        max:
        -   11.104142189025879
        scale:
        -   0.04463767362575905
        zero_point:
        -   -122
        ori_min:
        -   -0.27846458554267883
        ori_max:
        -   11.104142189025879
    /model.21/cv1/conv/Conv_output_0:
        qtype: asymmetric_quantized
        qmethod: layer
        dtype: int8
        min:
        -   -15.59465217590332
        max:
        -   12.986879348754883
        scale:
        -   0.1120844373516008
        zero_point:
        -   11
        ori_min:
        -   -15.59465217590332
        ori_max:
        -   12.986879348754883
    /model.21/cv1/act/Mul_output_0:
        qtype: asymmetric_quantized
        qmethod: layer
        dtype: int8
        min:
        -   -0.27846458554267883
        max:
        -   12.986849784851074
        scale:
        -   0.0520208406682108
        zero_point:
        -   -123
        ori_min:
        -   -0.27846458554267883
        ori_max:
        -   12.986849784851074
    /model.21/Split_output_0:
        qtype: asymmetric_quantized
        qmethod: layer
        dtype: int8
        min:
        -   -0.27846455574035645
        max:
        -   12.986849784851074
        scale:
        -   0.052020840551338945
        zero_point:
        -   -123
        ori_min:
        -   -0.27846455574035645
        ori_max:
        -   12.986849784851074
    /model.21/Split_output_1:
        qtype: asymmetric_quantized
        qmethod: layer
        dtype: int8
        min:
        -   -0.27846458554267883
        max:
        -   12.099224090576172
        scale:
        -   0.048539955592622946
        zero_point:
        -   -122
        ori_min:
        -   -0.27846458554267883
        ori_max:
        -   12.099224090576172
    /model.21/m.0/cv1/conv/Conv_output_0:
        qtype: asymmetric_quantized
        qmethod: layer
        dtype: int8
        min:
        -   -11.62957763671875
        max:
        -   8.42599868774414
        scale:
        -   0.07864931891946232
        zero_point:
        -   20
        ori_min:
        -   -11.62957763671875
        ori_max:
        -   8.42599868774414
    /model.21/m.0/cv1/act/Mul_output_0:
        qtype: asymmetric_quantized
        qmethod: layer
        dtype: int8
        min:
        -   -0.27846455574035645
        max:
        -   8.424153327941895
        scale:
        -   0.03412791326934216
        zero_point:
        -   -120
        ori_min:
        -   -0.27846455574035645
        ori_max:
        -   8.424153327941895
    /model.21/m.0/cv2/conv/Conv_output_0:
        qtype: asymmetric_quantized
        qmethod: layer
        dtype: int8
        min:
        -   -15.474496841430664
        max:
        -   16.547637939453125
        scale:
        -   0.12557699914072074
        zero_point:
        -   -5
        ori_min:
        -   -15.474496841430664
        ori_max:
        -   16.547637939453125
    /model.21/m.0/cv2/act/Mul_output_0:
        qtype: asymmetric_quantized
        qmethod: layer
        dtype: int8
        min:
        -   -0.27846458554267883
        max:
        -   16.547636032104492
        scale:
        -   0.06598470830449871
        zero_point:
        -   -124
        ori_min:
        -   -0.27846458554267883
        ori_max:
        -   16.547636032104492
    /model.21/Concat_output_0:
        qtype: asymmetric_quantized
        qmethod: layer
        dtype: int8
        min:
        -   -0.27846458554267883
        max:
        -   16.547636032104492
        scale:
        -   0.06598470830449871
        zero_point:
        -   -124
        ori_min:
        -   -0.27846458554267883
        ori_max:
        -   16.547636032104492
    /model.21/cv2/conv/Conv_output_0:
        qtype: asymmetric_quantized
        qmethod: layer
        dtype: int8
        min:
        -   -24.84687042236328
        max:
        -   11.251930236816406
        scale:
        -   0.14156392415364583
        zero_point:
        -   48
        ori_min:
        -   -24.84687042236328
        ori_max:
        -   11.251930236816406
    /model.21/cv2/act/Mul_output_0:
        qtype: asymmetric_quantized
        qmethod: layer
        dtype: int8
        min:
        -   -0.27846458554267883
        max:
        -   11.251784324645996
        scale:
        -   0.04521666239289676
        zero_point:
        -   -122
        ori_min:
        -   -0.27846458554267883
        ori_max:
        -   11.251784324645996
    /model.22/cv2.2/cv2.2.0/conv/Conv_output_0:
        qtype: asymmetric_quantized
        qmethod: layer
        dtype: int8
        min:
        -   -17.826148986816406
        max:
        -   12.906965255737305
        scale:
        -   0.12052201663746553
        zero_point:
        -   20
        ori_min:
        -   -17.826148986816406
        ori_max:
        -   12.906965255737305
    /model.22/cv2.2/cv2.2.0/act/Mul_output_0:
        qtype: asymmetric_quantized
        qmethod: layer
        dtype: int8
        min:
        -   -0.27846455574035645
        max:
        -   12.906932830810547
        scale:
        -   0.05170744073157217
        zero_point:
        -   -123
        ori_min:
        -   -0.27846455574035645
        ori_max:
        -   12.906932830810547
    /model.22/cv2.2/cv2.2.1/conv/Conv_output_0:
        qtype: asymmetric_quantized
        qmethod: layer
        dtype: int8
        min:
        -   -28.049724578857422
        max:
        -   48.05784606933594
        scale:
        -   0.29846106136546413
        zero_point:
        -   -34
        ori_min:
        -   -28.049724578857422
        ori_max:
        -   48.05784606933594
    /model.22/cv2.2/cv2.2.1/act/Mul_output_0:
        qtype: asymmetric_quantized
        qmethod: layer
        dtype: int8
        min:
        -   -0.27846455574035645
        max:
        -   48.05784606933594
        scale:
        -   0.1895541593140247
        zero_point:
        -   -127
        ori_min:
        -   -0.27846455574035645
        ori_max:
        -   48.05784606933594
    /model.22/cv2.2/cv2.2.2/Conv_output_0:
        qtype: asymmetric_quantized
        qmethod: layer
        dtype: int8
        min:
        -   -7.564505577087402
        max:
        -   13.986122131347656
        scale:
        -   0.08451226552327475
        zero_point:
        -   -38
        ori_min:
        -   -7.564505577087402
        ori_max:
        -   13.986122131347656
    /model.22/cv3.2/cv3.2.0/conv/Conv_output_0:
        qtype: asymmetric_quantized
        qmethod: layer
        dtype: int8
        min:
        -   -28.580270767211914
        max:
        -   11.287511825561523
        scale:
        -   0.15634424546185663
        zero_point:
        -   55
        ori_min:
        -   -28.580270767211914
        ori_max:
        -   11.287511825561523
    /model.22/cv3.2/cv3.2.0/act/Mul_output_0:
        qtype: asymmetric_quantized
        qmethod: layer
        dtype: int8
        min:
        -   -0.27846455574035645
        max:
        -   11.287370681762695
        scale:
        -   0.045356216617659026
        zero_point:
        -   -122
        ori_min:
        -   -0.27846455574035645
        ori_max:
        -   11.287370681762695
    /model.22/cv3.2/cv3.2.1/conv/Conv_output_0:
        qtype: asymmetric_quantized
        qmethod: layer
        dtype: int8
        min:
        -   -73.28946685791016
        max:
        -   84.0826644897461
        scale:
        -   0.6171456131280637
        zero_point:
        -   -9
        ori_min:
        -   -73.28946685791016
        ori_max:
        -   84.0826644897461
    /model.22/cv3.2/cv3.2.1/act/Mul_output_0:
        qtype: asymmetric_quantized
        qmethod: layer
        dtype: int8
        min:
        -   -0.27846455574035645
        max:
        -   84.0826644897461
        scale:
        -   0.33082795704112333
        zero_point:
        -   -127
        ori_min:
        -   -0.27846455574035645
        ori_max:
        -   84.0826644897461
    /model.22/cv3.2/cv3.2.2/Conv_output_0:
        qtype: asymmetric_quantized
        qmethod: layer
        dtype: int8
        min:
        -   -8.962738037109375
        max:
        -   3.534623146057129
        scale:
        -   0.04900925954182943
        zero_point:
        -   55
        ori_min:
        -   -57.03248977661133
        ori_max:
        -   3.534623146057129
    /model.22/Concat_2_output_0:
        qtype: asymmetric_quantized
        qmethod: layer
        dtype: int8
        min:
        -   -8.962738037109375
        max:
        -   13.986122131347656
        scale:
        -   0.08999553007238051
        zero_point:
        -   -28
        ori_min:
        -   -57.03248977661133
        ori_max:
        -   13.986122131347656
    /model.22/Reshape_2_output_0_shape4_/model.22/Concat_3:
        qtype: asymmetric_quantized
        qmethod: layer
        dtype: int8
        min:
        -   -8.962738037109375
        max:
        -   13.986122131347656
        scale:
        -   0.08999553007238051
        zero_point:
        -   -28
        ori_min:
        -   -57.03248977661133
        ori_max:
        -   13.986122131347656
    /model.22/cv2.1/cv2.1.0/conv/Conv_output_0:
        qtype: asymmetric_quantized
        qmethod: layer
        dtype: int8
        min:
        -   -19.379261016845703
        max:
        -   11.899101257324219
        scale:
        -   0.12266024421243106
        zero_point:
        -   30
        ori_min:
        -   -19.379261016845703
        ori_max:
        -   11.899101257324219
    /model.22/cv2.1/cv2.1.0/act/Mul_output_0:
        qtype: asymmetric_quantized
        qmethod: layer
        dtype: int8
        min:
        -   -0.27846458554267883
        max:
        -   11.899020195007324
        scale:
        -   0.04775484227666668
        zero_point:
        -   -122
        ori_min:
        -   -0.27846458554267883
        ori_max:
        -   11.899020195007324
    /model.22/cv2.1/cv2.1.1/conv/Conv_output_0:
        qtype: asymmetric_quantized
        qmethod: layer
        dtype: int8
        min:
        -   -36.086387634277344
        max:
        -   59.57596969604492
        scale:
        -   0.3751464993345971
        zero_point:
        -   -32
        ori_min:
        -   -36.086387634277344
        ori_max:
        -   59.57596969604492
    /model.22/cv2.1/cv2.1.1/act/Mul_output_0:
        qtype: asymmetric_quantized
        qmethod: layer
        dtype: int8
        min:
        -   -0.27846455574035645
        max:
        -   59.57596969604492
        scale:
        -   0.23472327157562856
        zero_point:
        -   -127
        ori_min:
        -   -0.27846455574035645
        ori_max:
        -   59.57596969604492
    /model.22/cv2.1/cv2.1.2/Conv_output_0:
        qtype: asymmetric_quantized
        qmethod: layer
        dtype: int8
        min:
        -   -8.962738037109375
        max:
        -   14.936721801757812
        scale:
        -   0.09372337191712622
        zero_point:
        -   -32
        ori_min:
        -   -8.962738037109375
        ori_max:
        -   14.936721801757812
    /model.22/cv3.1/cv3.1.0/conv/Conv_output_0:
        qtype: asymmetric_quantized
        qmethod: layer
        dtype: int8
        min:
        -   -21.28181266784668
        max:
        -   10.805366516113281
        scale:
        -   0.12583207523121553
        zero_point:
        -   41
        ori_min:
        -   -21.28181266784668
        ori_max:
        -   10.805366516113281
    /model.22/cv3.1/cv3.1.0/act/Mul_output_0:
        qtype: asymmetric_quantized
        qmethod: layer
        dtype: int8
        min:
        -   -0.27846458554267883
        max:
        -   10.805147171020508
        scale:
        -   0.043465144143385044
        zero_point:
        -   -122
        ori_min:
        -   -0.27846458554267883
        ori_max:
        -   10.805147171020508
    /model.22/cv3.1/cv3.1.1/conv/Conv_output_0:
        qtype: asymmetric_quantized
        qmethod: layer
        dtype: int8
        min:
        -   -132.9541778564453
        max:
        -   134.6168670654297
        scale:
        -   1.049298215379902
        zero_point:
        -   -1
        ori_min:
        -   -132.9541778564453
        ori_max:
        -   134.6168670654297
    /model.22/cv3.1/cv3.1.1/act/Mul_output_0:
        qtype: asymmetric_quantized
        qmethod: layer
        dtype: int8
        min:
        -   -0.27846455574035645
        max:
        -   134.6168670654297
        scale:
        -   0.5290013004751767
        zero_point:
        -   -127
        ori_min:
        -   -0.27846455574035645
        ori_max:
        -   134.6168670654297
    /model.22/cv3.1/cv3.1.2/Conv_output_0:
        qtype: asymmetric_quantized
        qmethod: layer
        dtype: int8
        min:
        -   -8.962738037109375
        max:
        -   2.9172840118408203
        scale:
        -   0.046588321760589003
        zero_point:
        -   64
        ori_min:
        -   -63.99614715576172
        ori_max:
        -   2.9172840118408203
    /model.22/Concat_1_output_0:
        qtype: asymmetric_quantized
        qmethod: layer
        dtype: int8
        min:
        -   -8.962738037109375
        max:
        -   14.936721801757812
        scale:
        -   0.09372337191712622
        zero_point:
        -   -32
        ori_min:
        -   -63.99614715576172
        ori_max:
        -   14.936721801757812
    /model.22/Reshape_1_output_0_shape4_/model.22/Concat_3:
        qtype: asymmetric_quantized
        qmethod: layer
        dtype: int8
        min:
        -   -8.962738037109375
        max:
        -   14.936721801757812
        scale:
        -   0.09372337191712622
        zero_point:
        -   -32
        ori_min:
        -   -63.99614715576172
        ori_max:
        -   14.936721801757812
    /model.22/cv2.0/cv2.0.0/conv/Conv_output_0:
        qtype: asymmetric_quantized
        qmethod: layer
        dtype: int8
        min:
        -   -19.34438133239746
        max:
        -   8.006377220153809
        scale:
        -   0.10725787667667165
        zero_point:
        -   52
        ori_min:
        -   -19.34438133239746
        ori_max:
        -   8.006377220153809
    /model.22/cv2.0/cv2.0.0/act/Mul_output_0:
        qtype: asymmetric_quantized
        qmethod: layer
        dtype: int8
        min:
        -   -0.27846458554267883
        max:
        -   8.00370979309082
        scale:
        -   0.032479115210327446
        zero_point:
        -   -119
        ori_min:
        -   -0.27846458554267883
        ori_max:
        -   8.00370979309082
    /model.22/cv2.0/cv2.0.1/conv/Conv_output_0:
        qtype: asymmetric_quantized
        qmethod: layer
        dtype: int8
        min:
        -   -37.11631774902344
        max:
        -   52.24507522583008
        scale:
        -   0.350436835195504
        zero_point:
        -   -22
        ori_min:
        -   -37.11631774902344
        ori_max:
        -   52.24507522583008
    /model.22/cv2.0/cv2.0.1/act/Mul_output_0:
        qtype: asymmetric_quantized
        qmethod: layer
        dtype: int8
        min:
        -   -0.27846458554267883
        max:
        -   52.24507522583008
        scale:
        -   0.205974665926952
        zero_point:
        -   -127
        ori_min:
        -   -0.27846458554267883
        ori_max:
        -   52.24507522583008
    /model.22/cv2.0/cv2.0.2/Conv_output_0:
        qtype: asymmetric_quantized
        qmethod: layer
        dtype: int8
        min:
        -   -8.616509437561035
        max:
        -   27.778310775756836
        scale:
        -   0.14272478515026615
        zero_point:
        -   -68
        ori_min:
        -   -8.616509437561035
        ori_max:
        -   27.778310775756836
    /model.22/cv3.0/cv3.0.0/conv/Conv_output_0:
        qtype: asymmetric_quantized
        qmethod: layer
        dtype: int8
        min:
        -   -13.387328147888184
        max:
        -   7.947286128997803
        scale:
        -   0.08366515402700386
        zero_point:
        -   32
        ori_min:
        -   -13.387328147888184
        ori_max:
        -   7.947286128997803
    /model.22/cv3.0/cv3.0.0/act/Mul_output_0:
        qtype: asymmetric_quantized
        qmethod: layer
        dtype: int8
        min:
        -   -0.27846458554267883
        max:
        -   7.944477081298828
        scale:
        -   0.032246830066045125
        zero_point:
        -   -119
        ori_min:
        -   -0.27846458554267883
        ori_max:
        -   7.944477081298828
    /model.22/cv3.0/cv3.0.1/conv/Conv_output_0:
        qtype: asymmetric_quantized
        qmethod: layer
        dtype: int8
        min:
        -   -114.63338470458984
        max:
        -   127.87622833251953
        scale:
        -   0.9510180903416053
        zero_point:
        -   -7
        ori_min:
        -   -114.63338470458984
        ori_max:
        -   127.87622833251953
    /model.22/cv3.0/cv3.0.1/act/Mul_output_0:
        qtype: asymmetric_quantized
        qmethod: layer
        dtype: int8
        min:
        -   -0.27846458554267883
        max:
        -   127.87622833251953
        scale:
        -   0.5025674232080871
        zero_point:
        -   -127
        ori_min:
        -   -0.27846458554267883
        ori_max:
        -   127.87622833251953
    /model.22/cv3.0/cv3.0.2/Conv_output_0:
        qtype: asymmetric_quantized
        qmethod: layer
        dtype: int8
        min:
        -   -8.962738037109375
        max:
        -   3.2670421600341797
        scale:
        -   0.04795992234173943
        zero_point:
        -   59
        ori_min:
        -   -47.0716552734375
        ori_max:
        -   3.2670421600341797
    /model.22/Concat_output_0:
        qtype: asymmetric_quantized
        qmethod: layer
        dtype: int8
        min:
        -   -8.962738037109375
        max:
        -   27.778310775756836
        scale:
        -   0.14408254436418122
        zero_point:
        -   -66
        ori_min:
        -   -47.0716552734375
        ori_max:
        -   27.778310775756836
    /model.22/Reshape_output_0_shape4_/model.22/Concat_3:
        qtype: asymmetric_quantized
        qmethod: layer
        dtype: int8
        min:
        -   -8.962738037109375
        max:
        -   27.778310775756836
        scale:
        -   0.14408254436418122
        zero_point:
        -   -66
        ori_min:
        -   -47.0716552734375
        ori_max:
        -   27.778310775756836
    /model.22/Concat_3_output_0:
        qtype: asymmetric_quantized
        qmethod: layer
        dtype: int8
        min:
        -   -8.962738037109375
        max:
        -   27.778310775756836
        scale:
        -   0.14408254436418122
        zero_point:
        -   -66
        ori_min:
        -   -63.99614715576172
        ori_max:
        -   27.778310775756836
    /model.22/Split_output_0_shape4:
        qtype: asymmetric_quantized
        qmethod: layer
        dtype: int8
        min:
        -   -8.962738037109375
        max:
        -   27.778310775756836
        scale:
        -   0.14408254436418122
        zero_point:
        -   -66
        ori_min:
        -   -8.962738037109375
        ori_max:
        -   27.778310775756836
    /model.22/Split_output_1:
        qtype: asymmetric_quantized
        qmethod: layer
        dtype: int8
        min:
        -   -7.0
        max:
        -   3.534623146057129
        scale:
        -   0.041312247631596584
        zero_point:
        -   41
        ori_min:
        -   -63.99614715576172
        ori_max:
        -   3.534623146057129
    /model.22/dfl/Reshape_output_0:
        qtype: asymmetric_quantized
        qmethod: layer
        dtype: int8
        min:
        -   -8.962738037109375
        max:
        -   27.778310775756836
        scale:
        -   0.14408254436418122
        zero_point:
        -   -66
        ori_min:
        -   -8.962738037109375
        ori_max:
        -   27.778310775756836
    /model.22/dfl/Softmax_pre_tp:
        qtype: asymmetric_quantized
        qmethod: layer
        dtype: int8
        min:
        -   -8.962738037109375
        max:
        -   27.778310775756836
        scale:
        -   0.14408254436418122
        zero_point:
        -   -66
        ori_min:
        -   -8.962738037109375
        ori_max:
        -   27.778310775756836
    /model.22/dfl/Softmax_new:
        qtype: asymmetric_quantized
        qmethod: layer
        dtype: int8
        min:
        -   0.0
        max:
        -   0.9619722962379456
        scale:
        -   0.0037724403774037083
        zero_point:
        -   -128
        ori_min:
        -   1.6274988986728653e-16
        ori_max:
        -   0.9619722962379456
    /model.22/dfl/conv/Conv_output_0:
        qtype: asymmetric_quantized
        qmethod: layer
        dtype: int8
        min:
        -   0.0
        max:
        -   14.405783653259277
        scale:
        -   0.05649326922846776
        zero_point:
        -   -128
        ori_min:
        -   0.04752347245812416
        ori_max:
        -   14.405783653259277
    /model.22/dfl/Reshape_1_output_0_shape4_/model.22/Slice_2split:
        qtype: asymmetric_quantized
        qmethod: layer
        dtype: int8
        min:
        -   0.0
        max:
        -   14.405783653259277
        scale:
        -   0.05649326922846776
        zero_point:
        -   -128
        ori_min:
        -   0.04752347245812416
        ori_max:
        -   14.405783653259277
    /model.22/dfl/Reshape_1_output_0_shape4_/model.22/Slice_2split_conv_/model.22/Slice_2split:
        qtype: asymmetric_quantized
        qmethod: layer
        dtype: int8
        min:
        -   0.0
        max:
        -   14.405783653259277
        scale:
        -   0.05649326922846776
        zero_point:
        -   -128
        ori_min:
        -   0.0
        ori_max:
        -   14.405783653259277
    /model.22/Slice_output_0_shape4_before_conv:
        qtype: asymmetric_quantized
        qmethod: layer
        dtype: int8
        min:
        -   0.0
        max:
        -   14.405783653259277
        scale:
        -   0.05649326922846776
        zero_point:
        -   -128
        ori_min:
        -   0.0
        ori_max:
        -   14.405783653259277
    /model.22/Slice_1_output_0:
        qtype: asymmetric_quantized
        qmethod: layer
        dtype: int8
        min:
        -   0.0
        max:
        -   14.219720840454102
        scale:
        -   0.05576361113903569
        zero_point:
        -   -128
        ori_min:
        -   0.04752347245812416
        ori_max:
        -   14.219720840454102
    /model.22/Slice_output_0:
        qtype: asymmetric_quantized
        qmethod: layer
        dtype: int8
        min:
        -   0.0
        max:
        -   14.405783653259277
        scale:
        -   0.05649326922846776
        zero_point:
        -   -128
        ori_min:
        -   0.05230354890227318
        ori_max:
        -   14.405783653259277
    /model.22/Sub_output_0:
        qtype: asymmetric_quantized
        qmethod: layer
        dtype: int8
        min:
        -   -3.0525588989257812
        max:
        -   79.37661743164062
        scale:
        -   0.32325167188457415
        zero_point:
        -   -119
        ori_min:
        -   -3.0525588989257812
        ori_max:
        -   79.37661743164062
    /model.22/Add_1_output_0:
        qtype: asymmetric_quantized
        qmethod: layer
        dtype: int8
        min:
        -   0.0
        max:
        -   83.43549346923828
        scale:
        -   0.327198013604856
        zero_point:
        -   -128
        ori_min:
        -   0.6063443422317505
        ori_max:
        -   83.43549346923828
    /model.22/Sub_1_output_0:
        qtype: asymmetric_quantized
        qmethod: layer
        dtype: int8
        min:
        -   0.0
        max:
        -   27.956703186035156
        scale:
        -   0.10963413014131433
        zero_point:
        -   -128
        ori_min:
        -   0.37471771240234375
        ori_max:
        -   27.956703186035156
    /model.22/Concat_4_swap_concat_reshape_i1_out:
        qtype: asymmetric_quantized
        qmethod: layer
        dtype: int8
        min:
        -   0.0
        max:
        -   27.956703186035156
        scale:
        -   0.10963413014131433
        zero_point:
        -   -128
        ori_min:
        -   0.37471771240234375
        ori_max:
        -   27.956703186035156
    /model.22/Add_2_output_0:
        qtype: asymmetric_quantized
        qmethod: layer
        dtype: int8
        min:
        -   0.0
        max:
        -   159.34642028808594
        scale:
        -   0.6248879226983762
        zero_point:
        -   -128
        ori_min:
        -   0.4318086504936218
        ori_max:
        -   159.34642028808594
    /model.22/Div_1_output_0:
        qtype: asymmetric_quantized
        qmethod: layer
        dtype: int8
        min:
        -   0.0
        max:
        -   79.67321014404297
        scale:
        -   0.3124439613491881
        zero_point:
        -   -128
        ori_min:
        -   0.2159043252468109
        ori_max:
        -   79.67321014404297
    /model.22/Concat_4_swap_concat_reshape_i0_out:
        qtype: asymmetric_quantized
        qmethod: layer
        dtype: int8
        min:
        -   0.0
        max:
        -   79.67321014404297
        scale:
        -   0.3124439613491881
        zero_point:
        -   -128
        ori_min:
        -   0.2159043252468109
        ori_max:
        -   79.67321014404297
    /model.22/Concat_4_output_0_shape4:
        qtype: asymmetric_quantized
        qmethod: layer
        dtype: int8
        min:
        -   0.0
        max:
        -   79.67321014404297
        scale:
        -   0.3124439613491881
        zero_point:
        -   -128
        ori_min:
        -   0.2159043252468109
        ori_max:
        -   79.67321014404297
    /model.22/Mul_2_output_0_before:
        qtype: asymmetric_quantized
        qmethod: layer
        dtype: int8
        min:
        -   0.0
        max:
        -   645.220703125
        scale:
        -   2.5302772671568627
        zero_point:
        -   -128
        ori_min:
        -   2.2530293464660645
        ori_max:
        -   645.220703125
    /model.22/Sigmoid_output_0:
        qtype: asymmetric_quantized
        qmethod: layer
        dtype: int8
        min:
        -   0.0
        max:
        -   0.9716569781303406
        scale:
        -   0.003810419522079767
        zero_point:
        -   -128
        ori_min:
        -   0.0
        ori_max:
        -   0.9716569781303406
    /model.22/Concat_5_swap_concat_reshape_i1_out:
        qtype: asymmetric_quantized
        qmethod: layer
        dtype: int8
        min:
        -   0.0
        max:
        -   0.9716569781303406
        scale:
        -   0.003810419522079767
        zero_point:
        -   -128
        ori_min:
        -   0.0
        ori_max:
        -   0.9716569781303406
    output0_shape4:
        qtype: asymmetric_quantized
        qmethod: layer
        dtype: int8
        min:
        -   0.0
        max:
        -   645.220703125
        scale:
        -   2.5302772671568627
        zero_point:
        -   -128
        ori_min:
        -   0.0
        ori_max:
        -   645.220703125
    output0:
        qtype: asymmetric_quantized
        qmethod: layer
        dtype: float32
        min:
        -   0.0
        max:
        -   645.220703125
        scale: []
        zero_point: []
        ori_min:
        -   0.0
        ori_max:
        -   645.220703125
    /model.22/Constant_9_output_0:
        qtype: symmetric_quantized
        qmethod: layer
        dtype: int32
        min:
        -   -79.5
        max:
        -   79.5
        scale:
        -   3.702007234096527e-08
        zero_point:
        -   0
        ori_min:
        -   0.5
        ori_max:
        -   79.5
    /model.22/Constant_10_output_0:
        qtype: symmetric_quantized
        qmethod: layer
        dtype: int32
        min:
        -   -79.5
        max:
        -   79.5
        scale:
        -   3.702007234096527e-08
        zero_point:
        -   0
        ori_min:
        -   0.5
        ori_max:
        -   79.5
    /model.22/Constant_12_output_0:
        qtype: asymmetric_quantized
        qmethod: layer
        dtype: int16
        min:
        -   0.0
        max:
        -   32.0
        scale:
        -   0.0004882887006942855
        zero_point:
        -   -32768
        ori_min:
        -   8.0
        ori_max:
        -   32.0
    images_int8:
        qtype: asymmetric_quantized
        qmethod: layer
        dtype: int8
        min:
        -   0.0
        max:
        -   1.0
        scale:
        -   0.00392156862745098
        zero_point:
        -   -128
        ori_min:
        -   0.0
        ori_max:
        -   1.0
    output0_int8:
        qtype: asymmetric_quantized
        qmethod: layer
        dtype: int8
        min:
        -   0.0
        max:
        -   645.220703125
        scale:
        -   2.5302772671568627
        zero_point:
        -   -128
        ori_min:
        -   0.0
        ori_max:
        -   645.220703125
