custom_quantize_layers:
    /model.0/act/Mul_output_0: float16
    /model.1/conv/Conv_output_0: float16
    /model.1/act/Mul_output_0: float16
    /model.2/cv1/conv/Conv_output_0: float16
    /model.2/Split_output_1: float16
    /model.2/m.0/cv1/conv/Conv_output_0: float16
    /model.2/m.0/Add_output_0: float16
    /model.2/Concat_output_0: float16
    /model.2/m.0/cv1/act/Mul_output_0: float16
    /model.2/m.0/cv2/conv/Conv_output_0: float16
    /model.2/m.0/cv2/act/Mul_output_0: float16
    /model.2/cv2/conv/Conv_output_0: float16
    /model.3/act/Mul_output_0: float16
    /model.4/cv1/conv/Conv_output_0: float16
    /model.4/m.1/cv2/act/Mul_output_0: float16
    /model.4/m.1/Add_output_0: float16
    /model.6/Split_output_0: float16
    /model.6/Concat_output_0: float16
    /model.6/m.1/cv2/act/Mul_output_0: float16
    /model.6/m.1/Add_output_0: float16
    /model.6/cv2/conv/Conv_output_0: float16
    /model.8/Split_output_0: float16
    /model.8/Concat_output_0: float16
    /model.8/m.0/cv2/act/Mul_output_0: float16
    /model.8/m.0/Add_output_0: float16
    /model.8/cv2/conv/Conv_output_0: float16
    /model.15/m.0/cv2/act/Mul_output_0: float16
    /model.15/Concat_output_0: float16
    /model.15/cv2/conv/Conv_output_0: float16
    /model.18/m.0/cv2/act/Mul_output_0: float16
    /model.18/Concat_output_0: float16
    /model.18/cv2/conv/Conv_output_0: float16
    /model.21/m.0/cv2/act/Mul_output_0: float16
    /model.21/Concat_output_0: float16
    /model.22/cv2.2/cv2.2.0/act/Mul_output_0: float16
    /model.22/cv2.2/cv2.2.1/conv/Conv_output_0: float16
    /model.22/cv2.2/cv2.2.1/act/Mul_output_0: float16
    /model.22/cv2.2/cv2.2.2/Conv_output_0: float16
    /model.22/cv3.2/cv3.2.0/act/Mul_output_0: float16
    /model.22/cv3.2/cv3.2.1/conv/Conv_output_0: float16
    /model.22/cv3.2/cv3.2.1/act/Mul_output_0: float16
    /model.22/cv3.2/cv3.2.2/Conv_output_0: float16
    /model.22/cv2.1/cv2.1.0/act/Mul_output_0: float16
    /model.22/cv2.1/cv2.1.1/conv/Conv_output_0: float16
    /model.22/cv2.1/cv2.1.1/act/Mul_output_0: float16
    /model.22/cv2.1/cv2.1.2/Conv_output_0: float16
    /model.22/cv3.1/cv3.1.1/act/Mul_output_0: float16
    /model.22/cv3.1/cv3.1.2/Conv_output_0: float16
    /model.22/cv2.0/cv2.0.1/act/Mul_output_0: float16
    /model.22/cv2.0/cv2.0.2/Conv_output_0: float16
    /model.22/cv3.0/cv3.0.1/act/Mul_output_0: float16
    /model.22/cv3.0/cv3.0.2/Conv_output_0: float16
    /model.22/dfl/Softmax_new: float16
    /model.22/dfl/conv/Conv_output_0: float16
    /model.22/Sigmoid_output_0: float16
    /model.22/Concat_5_swap_concat_reshape_i1_out: float16
    output0_shape4: float16
    output0_int8: float16
    output0: float16
quantize_parameters:
    images:
        qtype: asymmetric_quantized
        qmethod: layer
        dtype: float32
        min:
        -   0.0
        max:
        -   1.0
        scale: []
        zero_point: []
        ori_min:
        -   0.0
        ori_max:
        -   1.0
    /model.0/conv/Conv_output_0:
        qtype: asymmetric_quantized
        qmethod: layer
        dtype: int8
        min:
        -   -49.36354446411133
        max:
        -   54.28505325317383
        scale:
        -   0.40646508908739276
        zero_point:
        -   -7
        ori_min:
        -   -49.36354446411133
        ori_max:
        -   54.28505325317383
    /model.0/act/Mul_output_0:
        qtype: asymmetric_quantized
        qmethod: layer
        dtype: int8
        min:
        -   -0.27846458554267883
        max:
        -   54.28505325317383
        scale:
        -   0.21397457975967257
        zero_point:
        -   -127
        ori_min:
        -   -0.27846458554267883
        ori_max:
        -   54.28505325317383
    /model.1/conv/Conv_output_0:
        qtype: asymmetric_quantized
        qmethod: layer
        dtype: int8
        min:
        -   -148.71336364746094
        max:
        -   130.72882080078125
        scale:
        -   1.0958517037185969
        zero_point:
        -   8
        ori_min:
        -   -148.71336364746094
        ori_max:
        -   130.72882080078125
    /model.1/act/Mul_output_0:
        qtype: asymmetric_quantized
        qmethod: layer
        dtype: int8
        min:
        -   -0.27846458554267883
        max:
        -   130.72882080078125
        scale:
        -   0.5137540603385252
        zero_point:
        -   -127
        ori_min:
        -   -0.27846458554267883
        ori_max:
        -   130.72882080078125
    /model.2/cv1/conv/Conv_output_0:
        qtype: asymmetric_quantized
        qmethod: layer
        dtype: int8
        min:
        -   -97.53569030761719
        max:
        -   33.515445709228516
        scale:
        -   0.5139260235954733
        zero_point:
        -   62
        ori_min:
        -   -97.53569030761719
        ori_max:
        -   33.515445709228516
    /model.2/cv1/act/Mul_output_0:
        qtype: asymmetric_quantized
        qmethod: layer
        dtype: int8
        min:
        -   -0.27846458554267883
        max:
        -   33.515445709228516
        scale:
        -   0.13252513841086744
        zero_point:
        -   -126
        ori_min:
        -   -0.27846458554267883
        ori_max:
        -   33.515445709228516
    /model.2/Split_output_0:
        qtype: asymmetric_quantized
        qmethod: layer
        dtype: int8
        min:
        -   -0.27846458554267883
        max:
        -   33.515445709228516
        scale:
        -   0.13252513841086744
        zero_point:
        -   -126
        ori_min:
        -   -0.27846458554267883
        ori_max:
        -   33.515445709228516
    /model.2/Split_output_1:
        qtype: asymmetric_quantized
        qmethod: layer
        dtype: int8
        min:
        -   -0.27846458554267883
        max:
        -   19.708587646484375
        scale:
        -   0.07838059698834139
        zero_point:
        -   -124
        ori_min:
        -   -0.27846458554267883
        ori_max:
        -   19.708587646484375
    /model.2/m.0/cv1/conv/Conv_output_0:
        qtype: asymmetric_quantized
        qmethod: layer
        dtype: int8
        min:
        -   -40.34967803955078
        max:
        -   31.098562240600586
        scale:
        -   0.28018917756922107
        zero_point:
        -   16
        ori_min:
        -   -40.34967803955078
        ori_max:
        -   31.098562240600586
    /model.2/m.0/cv1/act/Mul_output_0:
        qtype: asymmetric_quantized
        qmethod: layer
        dtype: int8
        min:
        -   -0.27846458554267883
        max:
        -   31.098562240600586
        scale:
        -   0.12304716402409123
        zero_point:
        -   -126
        ori_min:
        -   -0.27846458554267883
        ori_max:
        -   31.098562240600586
    /model.2/m.0/cv2/conv/Conv_output_0:
        qtype: asymmetric_quantized
        qmethod: layer
        dtype: int8
        min:
        -   -38.4429931640625
        max:
        -   36.49432373046875
        scale:
        -   0.2938718309589461
        zero_point:
        -   3
        ori_min:
        -   -38.4429931640625
        ori_max:
        -   36.49432373046875
    /model.2/m.0/cv2/act/Mul_output_0:
        qtype: asymmetric_quantized
        qmethod: layer
        dtype: int8
        min:
        -   -0.27846458554267883
        max:
        -   36.49432373046875
        scale:
        -   0.14420701300396638
        zero_point:
        -   -126
        ori_min:
        -   -0.27846458554267883
        ori_max:
        -   36.49432373046875
    /model.2/m.0/Add_output_0:
        qtype: asymmetric_quantized
        qmethod: layer
        dtype: int8
        min:
        -   -0.5569291114807129
        max:
        -   41.016727447509766
        scale:
        -   0.16303394729015874
        zero_point:
        -   -125
        ori_min:
        -   -0.5569291114807129
        ori_max:
        -   41.016727447509766
    /model.2/Concat_output_0:
        qtype: asymmetric_quantized
        qmethod: layer
        dtype: int8
        min:
        -   -0.5569291114807129
        max:
        -   41.016727447509766
        scale:
        -   0.16303394729015874
        zero_point:
        -   -125
        ori_min:
        -   -0.5569291114807129
        ori_max:
        -   41.016727447509766
    /model.2/cv2/conv/Conv_output_0:
        qtype: asymmetric_quantized
        qmethod: layer
        dtype: int8
        min:
        -   -30.913700103759766
        max:
        -   17.1285400390625
        scale:
        -   0.18840094173655791
        zero_point:
        -   36
        ori_min:
        -   -30.913700103759766
        ori_max:
        -   17.1285400390625
    /model.2/cv2/act/Mul_output_0:
        qtype: asymmetric_quantized
        qmethod: layer
        dtype: int8
        min:
        -   -0.27846458554267883
        max:
        -   17.1285400390625
        scale:
        -   0.0682627632337458
        zero_point:
        -   -124
        ori_min:
        -   -0.27846458554267883
        ori_max:
        -   17.1285400390625
    /model.3/conv/Conv_output_0:
        qtype: asymmetric_quantized
        qmethod: layer
        dtype: int8
        min:
        -   -14.14588451385498
        max:
        -   8.530133247375488
        scale:
        -   0.08892555984796262
        zero_point:
        -   31
        ori_min:
        -   -14.14588451385498
        ori_max:
        -   8.530133247375488
    /model.3/act/Mul_output_0:
        qtype: asymmetric_quantized
        qmethod: layer
        dtype: int8
        min:
        -   -0.27846458554267883
        max:
        -   8.528450012207031
        scale:
        -   0.034536919991175336
        zero_point:
        -   -120
        ori_min:
        -   -0.27846458554267883
        ori_max:
        -   8.528450012207031
    /model.4/cv1/conv/Conv_output_0:
        qtype: asymmetric_quantized
        qmethod: layer
        dtype: int8
        min:
        -   -13.229546546936035
        max:
        -   7.8410515785217285
        scale:
        -   0.0826297965704226
        zero_point:
        -   32
        ori_min:
        -   -13.229546546936035
        ori_max:
        -   7.8410515785217285
    /model.4/cv1/act/Mul_output_0:
        qtype: asymmetric_quantized
        qmethod: layer
        dtype: int8
        min:
        -   -0.27846458554267883
        max:
        -   7.8379693031311035
        scale:
        -   0.03182915250460307
        zero_point:
        -   -119
        ori_min:
        -   -0.27846458554267883
        ori_max:
        -   7.8379693031311035
    /model.4/Split_output_0:
        qtype: asymmetric_quantized
        qmethod: layer
        dtype: int8
        min:
        -   -0.27846458554267883
        max:
        -   7.8379693031311035
        scale:
        -   0.03182915250460307
        zero_point:
        -   -119
        ori_min:
        -   -0.27846458554267883
        ori_max:
        -   7.8379693031311035
    /model.4/Split_output_1:
        qtype: asymmetric_quantized
        qmethod: layer
        dtype: int8
        min:
        -   -0.27846458554267883
        max:
        -   4.494629859924316
        scale:
        -   0.018718017433203903
        zero_point:
        -   -113
        ori_min:
        -   -0.27846458554267883
        ori_max:
        -   4.494629859924316
    /model.4/m.0/cv1/conv/Conv_output_0:
        qtype: asymmetric_quantized
        qmethod: layer
        dtype: int8
        min:
        -   -7.160611629486084
        max:
        -   5.4157915115356445
        scale:
        -   0.04931922800400678
        zero_point:
        -   17
        ori_min:
        -   -7.160611629486084
        ori_max:
        -   5.4157915115356445
    /model.4/m.0/cv1/act/Mul_output_0:
        qtype: asymmetric_quantized
        qmethod: layer
        dtype: int8
        min:
        -   -0.27846458554267883
        max:
        -   5.391820430755615
        scale:
        -   0.02223641182862076
        zero_point:
        -   -115
        ori_min:
        -   -0.27846458554267883
        ori_max:
        -   5.391820430755615
    /model.4/m.0/cv2/conv/Conv_output_0:
        qtype: asymmetric_quantized
        qmethod: layer
        dtype: int8
        min:
        -   -9.118040084838867
        max:
        -   6.006304740905762
        scale:
        -   0.0593111561793907
        zero_point:
        -   26
        ori_min:
        -   -9.118040084838867
        ori_max:
        -   6.006304740905762
    /model.4/m.0/cv2/act/Mul_output_0:
        qtype: asymmetric_quantized
        qmethod: layer
        dtype: int8
        min:
        -   -0.27846458554267883
        max:
        -   5.991546630859375
        scale:
        -   0.024588279280008053
        zero_point:
        -   -117
        ori_min:
        -   -0.27846458554267883
        ori_max:
        -   5.991546630859375
    /model.4/m.0/Add_output_0:
        qtype: asymmetric_quantized
        qmethod: layer
        dtype: int8
        min:
        -   -0.5569286346435547
        max:
        -   7.623682975769043
        scale:
        -   0.032080829844755285
        zero_point:
        -   -111
        ori_min:
        -   -0.5569286346435547
        ori_max:
        -   7.623682975769043
    /model.4/m.1/cv1/conv/Conv_output_0:
        qtype: asymmetric_quantized
        qmethod: layer
        dtype: int8
        min:
        -   -8.486320495605469
        max:
        -   5.225805759429932
        scale:
        -   0.05377304413739373
        zero_point:
        -   30
        ori_min:
        -   -8.486320495605469
        ori_max:
        -   5.225805759429932
    /model.4/m.1/cv1/act/Mul_output_0:
        qtype: asymmetric_quantized
        qmethod: layer
        dtype: int8
        min:
        -   -0.27846458554267883
        max:
        -   5.197862148284912
        scale:
        -   0.021475791113049376
        zero_point:
        -   -115
        ori_min:
        -   -0.27846458554267883
        ori_max:
        -   5.197862148284912
    /model.4/m.1/cv2/conv/Conv_output_0:
        qtype: asymmetric_quantized
        qmethod: layer
        dtype: int8
        min:
        -   -13.724082946777344
        max:
        -   11.92568302154541
        scale:
        -   0.10058731752283433
        zero_point:
        -   8
        ori_min:
        -   -13.724082946777344
        ori_max:
        -   11.92568302154541
    /model.4/m.1/cv2/act/Mul_output_0:
        qtype: asymmetric_quantized
        qmethod: layer
        dtype: int8
        min:
        -   -0.27846458554267883
        max:
        -   11.925603866577148
        scale:
        -   0.047859091969097364
        zero_point:
        -   -122
        ori_min:
        -   -0.27846458554267883
        ori_max:
        -   11.925603866577148
    /model.4/m.1/Add_output_0:
        qtype: asymmetric_quantized
        qmethod: layer
        dtype: int8
        min:
        -   -0.8353724479675293
        max:
        -   12.423551559448242
        scale:
        -   0.05199578042123832
        zero_point:
        -   -112
        ori_min:
        -   -0.8353724479675293
        ori_max:
        -   12.423551559448242
    /model.4/Concat_output_0:
        qtype: asymmetric_quantized
        qmethod: layer
        dtype: int8
        min:
        -   -0.8353724479675293
        max:
        -   12.423551559448242
        scale:
        -   0.05199578042123832
        zero_point:
        -   -112
        ori_min:
        -   -0.8353724479675293
        ori_max:
        -   12.423551559448242
    /model.4/cv2/conv/Conv_output_0:
        qtype: asymmetric_quantized
        qmethod: layer
        dtype: int8
        min:
        -   -12.141676902770996
        max:
        -   8.837030410766602
        scale:
        -   0.08226944044524548
        zero_point:
        -   20
        ori_min:
        -   -12.141676902770996
        ori_max:
        -   8.837030410766602
    /model.4/cv2/act/Mul_output_0:
        qtype: asymmetric_quantized
        qmethod: layer
        dtype: int8
        min:
        -   -0.27846458554267883
        max:
        -   8.835747718811035
        scale:
        -   0.03574200903668123
        zero_point:
        -   -120
        ori_min:
        -   -0.27846458554267883
        ori_max:
        -   8.835747718811035
    /model.5/conv/Conv_output_0:
        qtype: asymmetric_quantized
        qmethod: layer
        dtype: int8
        min:
        -   -15.30026912689209
        max:
        -   8.767852783203125
        scale:
        -   0.09438479180429496
        zero_point:
        -   34
        ori_min:
        -   -15.30026912689209
        ori_max:
        -   8.767852783203125
    /model.5/act/Mul_output_0:
        qtype: asymmetric_quantized
        qmethod: layer
        dtype: int8
        min:
        -   -0.27846458554267883
        max:
        -   8.766488075256348
        scale:
        -   0.03547040259136873
        zero_point:
        -   -120
        ori_min:
        -   -0.27846458554267883
        ori_max:
        -   8.766488075256348
    /model.6/cv1/conv/Conv_output_0:
        qtype: asymmetric_quantized
        qmethod: layer
        dtype: int8
        min:
        -   -11.299660682678223
        max:
        -   8.864052772521973
        scale:
        -   0.07907338609882429
        zero_point:
        -   15
        ori_min:
        -   -11.299660682678223
        ori_max:
        -   8.864052772521973
    /model.6/cv1/act/Mul_output_0:
        qtype: asymmetric_quantized
        qmethod: layer
        dtype: int8
        min:
        -   -0.27846455574035645
        max:
        -   8.862799644470215
        scale:
        -   0.03584809490278655
        zero_point:
        -   -120
        ori_min:
        -   -0.27846455574035645
        ori_max:
        -   8.862799644470215
    /model.6/Split_output_0:
        qtype: asymmetric_quantized
        qmethod: layer
        dtype: int8
        min:
        -   -0.27846455574035645
        max:
        -   8.862799644470215
        scale:
        -   0.03584809490278655
        zero_point:
        -   -120
        ori_min:
        -   -0.27846455574035645
        ori_max:
        -   8.862799644470215
    /model.6/Split_output_1:
        qtype: asymmetric_quantized
        qmethod: layer
        dtype: int8
        min:
        -   -0.27846455574035645
        max:
        -   5.352557182312012
        scale:
        -   0.02208243818844066
        zero_point:
        -   -115
        ori_min:
        -   -0.27846455574035645
        ori_max:
        -   5.352557182312012
    /model.6/m.0/cv1/conv/Conv_output_0:
        qtype: asymmetric_quantized
        qmethod: layer
        dtype: int8
        min:
        -   -12.459035873413086
        max:
        -   7.583077907562256
        scale:
        -   0.07859652463127585
        zero_point:
        -   31
        ori_min:
        -   -12.459035873413086
        ori_max:
        -   7.583077907562256
    /model.6/m.0/cv1/act/Mul_output_0:
        qtype: asymmetric_quantized
        qmethod: layer
        dtype: int8
        min:
        -   -0.27846458554267883
        max:
        -   7.579219818115234
        scale:
        -   0.03081444864179574
        zero_point:
        -   -119
        ori_min:
        -   -0.27846458554267883
        ori_max:
        -   7.579219818115234
    /model.6/m.0/cv2/conv/Conv_output_0:
        qtype: asymmetric_quantized
        qmethod: layer
        dtype: int8
        min:
        -   -8.80693244934082
        max:
        -   8.126909255981445
        scale:
        -   0.0664072223738128
        zero_point:
        -   5
        ori_min:
        -   -8.80693244934082
        ori_max:
        -   8.126909255981445
    /model.6/m.0/cv2/act/Mul_output_0:
        qtype: asymmetric_quantized
        qmethod: layer
        dtype: int8
        min:
        -   -0.27846458554267883
        max:
        -   8.124507904052734
        scale:
        -   0.032952833292531035
        zero_point:
        -   -120
        ori_min:
        -   -0.27846458554267883
        ori_max:
        -   8.124507904052734
    /model.6/m.0/Add_output_0:
        qtype: asymmetric_quantized
        qmethod: layer
        dtype: int8
        min:
        -   -0.556928813457489
        max:
        -   11.755317687988281
        scale:
        -   0.04828331961351282
        zero_point:
        -   -116
        ori_min:
        -   -0.556928813457489
        ori_max:
        -   11.755317687988281
    /model.6/m.1/cv1/conv/Conv_output_0:
        qtype: asymmetric_quantized
        qmethod: layer
        dtype: int8
        min:
        -   -8.64660930633545
        max:
        -   9.350499153137207
        scale:
        -   0.07057689591950062
        zero_point:
        -   -5
        ori_min:
        -   -8.64660930633545
        ori_max:
        -   9.350499153137207
    /model.6/m.1/cv1/act/Mul_output_0:
        qtype: asymmetric_quantized
        qmethod: layer
        dtype: int8
        min:
        -   -0.27846458554267883
        max:
        -   9.349686622619629
        scale:
        -   0.03775745571828356
        zero_point:
        -   -121
        ori_min:
        -   -0.27846458554267883
        ori_max:
        -   9.349686622619629
    /model.6/m.1/cv2/conv/Conv_output_0:
        qtype: asymmetric_quantized
        qmethod: layer
        dtype: int8
        min:
        -   -14.033673286437988
        max:
        -   22.564022064208984
        scale:
        -   0.14352037392410577
        zero_point:
        -   -30
        ori_min:
        -   -14.033673286437988
        ori_max:
        -   22.564022064208984
    /model.6/m.1/cv2/act/Mul_output_0:
        qtype: asymmetric_quantized
        qmethod: layer
        dtype: int8
        min:
        -   -0.27846458554267883
        max:
        -   22.564022064208984
        scale:
        -   0.08957837901863397
        zero_point:
        -   -125
        ori_min:
        -   -0.27846458554267883
        ori_max:
        -   22.564022064208984
    /model.6/m.1/Add_output_0:
        qtype: asymmetric_quantized
        qmethod: layer
        dtype: int8
        min:
        -   -0.835363507270813
        max:
        -   22.930917739868164
        scale:
        -   0.09320110292995677
        zero_point:
        -   -119
        ori_min:
        -   -0.835363507270813
        ori_max:
        -   22.930917739868164
    /model.6/Concat_output_0:
        qtype: asymmetric_quantized
        qmethod: layer
        dtype: int8
        min:
        -   -0.835363507270813
        max:
        -   22.930917739868164
        scale:
        -   0.09320110292995677
        zero_point:
        -   -119
        ori_min:
        -   -0.835363507270813
        ori_max:
        -   22.930917739868164
    /model.6/cv2/conv/Conv_output_0:
        qtype: asymmetric_quantized
        qmethod: layer
        dtype: int8
        min:
        -   -9.393261909484863
        max:
        -   7.677621841430664
        scale:
        -   0.06694464216045305
        zero_point:
        -   12
        ori_min:
        -   -9.393261909484863
        ori_max:
        -   7.677621841430664
    /model.6/cv2/act/Mul_output_0:
        qtype: asymmetric_quantized
        qmethod: layer
        dtype: int8
        min:
        -   -0.27846458554267883
        max:
        -   7.674067974090576
        scale:
        -   0.031186402194640216
        zero_point:
        -   -119
        ori_min:
        -   -0.27846458554267883
        ori_max:
        -   7.674067974090576
    /model.7/conv/Conv_output_0:
        qtype: asymmetric_quantized
        qmethod: layer
        dtype: int8
        min:
        -   -10.080795288085938
        max:
        -   8.182880401611328
        scale:
        -   0.07162225760665594
        zero_point:
        -   13
        ori_min:
        -   -10.080795288085938
        ori_max:
        -   8.182880401611328
    /model.7/act/Mul_output_0:
        qtype: asymmetric_quantized
        qmethod: layer
        dtype: int8
        min:
        -   -0.27846455574035645
        max:
        -   8.180594444274902
        scale:
        -   0.0331727803922167
        zero_point:
        -   -120
        ori_min:
        -   -0.27846455574035645
        ori_max:
        -   8.180594444274902
    /model.8/cv1/conv/Conv_output_0:
        qtype: asymmetric_quantized
        qmethod: layer
        dtype: int8
        min:
        -   -14.97351360321045
        max:
        -   14.31692123413086
        scale:
        -   0.11486445034251494
        zero_point:
        -   2
        ori_min:
        -   -14.97351360321045
        ori_max:
        -   14.31692123413086
    /model.8/cv1/act/Mul_output_0:
        qtype: asymmetric_quantized
        qmethod: layer
        dtype: int8
        min:
        -   -0.27846458554267883
        max:
        -   14.316912651062012
        scale:
        -   0.057236773476881136
        zero_point:
        -   -123
        ori_min:
        -   -0.27846458554267883
        ori_max:
        -   14.316912651062012
    /model.8/Split_output_0:
        qtype: asymmetric_quantized
        qmethod: layer
        dtype: int8
        min:
        -   -0.27846458554267883
        max:
        -   14.316912651062012
        scale:
        -   0.057236773476881136
        zero_point:
        -   -123
        ori_min:
        -   -0.27846458554267883
        ori_max:
        -   14.316912651062012
    /model.8/Split_output_1:
        qtype: asymmetric_quantized
        qmethod: layer
        dtype: int8
        min:
        -   -0.27846455574035645
        max:
        -   10.428838729858398
        scale:
        -   0.04198942464940688
        zero_point:
        -   -121
        ori_min:
        -   -0.27846455574035645
        ori_max:
        -   10.428838729858398
    /model.8/m.0/cv1/conv/Conv_output_0:
        qtype: asymmetric_quantized
        qmethod: layer
        dtype: int8
        min:
        -   -9.96640396118164
        max:
        -   11.00802993774414
        scale:
        -   0.08225268195657169
        zero_point:
        -   -7
        ori_min:
        -   -9.96640396118164
        ori_max:
        -   11.00802993774414
    /model.8/m.0/cv1/act/Mul_output_0:
        qtype: asymmetric_quantized
        qmethod: layer
        dtype: int8
        min:
        -   -0.27846458554267883
        max:
        -   11.007847785949707
        scale:
        -   0.04426004851565642
        zero_point:
        -   -122
        ori_min:
        -   -0.27846458554267883
        ori_max:
        -   11.007847785949707
    /model.8/m.0/cv2/conv/Conv_output_0:
        qtype: asymmetric_quantized
        qmethod: layer
        dtype: int8
        min:
        -   -14.368860244750977
        max:
        -   14.791238784790039
        scale:
        -   0.11435332952761183
        zero_point:
        -   -2
        ori_min:
        -   -14.368860244750977
        ori_max:
        -   14.791238784790039
    /model.8/m.0/cv2/act/Mul_output_0:
        qtype: asymmetric_quantized
        qmethod: layer
        dtype: int8
        min:
        -   -0.27846458554267883
        max:
        -   14.79123306274414
        scale:
        -   0.05909685352269341
        zero_point:
        -   -123
        ori_min:
        -   -0.27846458554267883
        ori_max:
        -   14.79123306274414
    /model.8/m.0/Add_output_0:
        qtype: asymmetric_quantized
        qmethod: layer
        dtype: int8
        min:
        -   -0.556928813457489
        max:
        -   14.656768798828125
        scale:
        -   0.059661559263865155
        zero_point:
        -   -119
        ori_min:
        -   -0.556928813457489
        ori_max:
        -   14.656768798828125
    /model.8/Concat_output_0:
        qtype: asymmetric_quantized
        qmethod: layer
        dtype: int8
        min:
        -   -0.556928813457489
        max:
        -   14.656768798828125
        scale:
        -   0.059661559263865155
        zero_point:
        -   -119
        ori_min:
        -   -0.556928813457489
        ori_max:
        -   14.656768798828125
    /model.8/cv2/conv/Conv_output_0:
        qtype: asymmetric_quantized
        qmethod: layer
        dtype: int8
        min:
        -   -11.910643577575684
        max:
        -   9.604530334472656
        scale:
        -   0.08437323102764055
        zero_point:
        -   13
        ori_min:
        -   -11.910643577575684
        ori_max:
        -   9.604530334472656
    /model.8/cv2/act/Mul_output_0:
        qtype: asymmetric_quantized
        qmethod: layer
        dtype: int8
        min:
        -   -0.27846455574035645
        max:
        -   9.6038818359375
        scale:
        -   0.038754299575207284
        zero_point:
        -   -121
        ori_min:
        -   -0.27846455574035645
        ori_max:
        -   9.6038818359375
    /model.9/cv1/conv/Conv_output_0:
        qtype: asymmetric_quantized
        qmethod: layer
        dtype: int8
        min:
        -   -6.134779453277588
        max:
        -   8.879171371459961
        scale:
        -   0.058878238528382545
        zero_point:
        -   -24
        ori_min:
        -   -6.134779453277588
        ori_max:
        -   8.879171371459961
    /model.9/cv1/act/Mul_output_0:
        qtype: asymmetric_quantized
        qmethod: layer
        dtype: int8
        min:
        -   -0.27846455574035645
        max:
        -   8.877935409545898
        scale:
        -   0.03590745084425982
        zero_point:
        -   -120
        ori_min:
        -   -0.27846455574035645
        ori_max:
        -   8.877935409545898
    /model.9/m/MaxPool_output_0:
        qtype: asymmetric_quantized
        qmethod: layer
        dtype: int8
        min:
        -   -0.27846455574035645
        max:
        -   8.877935409545898
        scale:
        -   0.03590745084425982
        zero_point:
        -   -120
        ori_min:
        -   -0.27513355016708374
        ori_max:
        -   8.877935409545898
    /model.9/m_1/MaxPool_output_0:
        qtype: asymmetric_quantized
        qmethod: layer
        dtype: int8
        min:
        -   -0.27846455574035645
        max:
        -   8.877935409545898
        scale:
        -   0.03590745084425982
        zero_point:
        -   -120
        ori_min:
        -   -0.26154184341430664
        ori_max:
        -   8.877935409545898
    /model.9/m_2/MaxPool_output_0:
        qtype: asymmetric_quantized
        qmethod: layer
        dtype: int8
        min:
        -   -0.27846455574035645
        max:
        -   8.877935409545898
        scale:
        -   0.03590745084425982
        zero_point:
        -   -120
        ori_min:
        -   -0.24746616184711456
        ori_max:
        -   8.877935409545898
    /model.9/Concat_output_0:
        qtype: asymmetric_quantized
        qmethod: layer
        dtype: int8
        min:
        -   -0.27846455574035645
        max:
        -   8.877935409545898
        scale:
        -   0.03590745084425982
        zero_point:
        -   -120
        ori_min:
        -   -0.27846455574035645
        ori_max:
        -   8.877935409545898
    /model.9/cv2/conv/Conv_output_0:
        qtype: asymmetric_quantized
        qmethod: layer
        dtype: int8
        min:
        -   -9.171635627746582
        max:
        -   11.058286666870117
        scale:
        -   0.07933302860633999
        zero_point:
        -   -12
        ori_min:
        -   -9.171635627746582
        ori_max:
        -   11.058286666870117
    /model.9/cv2/act/Mul_output_0:
        qtype: asymmetric_quantized
        qmethod: layer
        dtype: int8
        min:
        -   -0.27846458554267883
        max:
        -   11.058113098144531
        scale:
        -   0.04445716738700867
        zero_point:
        -   -122
        ori_min:
        -   -0.27846458554267883
        ori_max:
        -   11.058113098144531
    /model.10/Resize_output_0:
        qtype: asymmetric_quantized
        qmethod: layer
        dtype: int8
        min:
        -   -0.27846458554267883
        max:
        -   11.058113098144531
        scale:
        -   0.04445716738700867
        zero_point:
        -   -122
        ori_min:
        -   -0.27846458554267883
        ori_max:
        -   11.058113098144531
    /model.11/Concat_output_0:
        qtype: asymmetric_quantized
        qmethod: layer
        dtype: int8
        min:
        -   -0.27846458554267883
        max:
        -   11.058113098144531
        scale:
        -   0.04445716738700867
        zero_point:
        -   -122
        ori_min:
        -   -0.27846458554267883
        ori_max:
        -   11.058113098144531
    /model.12/cv1/conv/Conv_output_0:
        qtype: asymmetric_quantized
        qmethod: layer
        dtype: int8
        min:
        -   -9.694021224975586
        max:
        -   11.088117599487305
        scale:
        -   0.08149858362534466
        zero_point:
        -   -9
        ori_min:
        -   -9.694021224975586
        ori_max:
        -   11.088117599487305
    /model.12/cv1/act/Mul_output_0:
        qtype: asymmetric_quantized
        qmethod: layer
        dtype: int8
        min:
        -   -0.27846458554267883
        max:
        -   11.0879487991333
        scale:
        -   0.044574170135984234
        zero_point:
        -   -122
        ori_min:
        -   -0.27846458554267883
        ori_max:
        -   11.0879487991333
    /model.12/Split_output_0:
        qtype: asymmetric_quantized
        qmethod: layer
        dtype: int8
        min:
        -   -0.27846458554267883
        max:
        -   11.0879487991333
        scale:
        -   0.044574170135984234
        zero_point:
        -   -122
        ori_min:
        -   -0.27846458554267883
        ori_max:
        -   11.0879487991333
    /model.12/Split_output_1:
        qtype: asymmetric_quantized
        qmethod: layer
        dtype: int8
        min:
        -   -0.27846458554267883
        max:
        -   6.320240020751953
        scale:
        -   0.0258772729658613
        zero_point:
        -   -117
        ori_min:
        -   -0.27846458554267883
        ori_max:
        -   6.320240020751953
    /model.12/m.0/cv1/conv/Conv_output_0:
        qtype: asymmetric_quantized
        qmethod: layer
        dtype: int8
        min:
        -   -10.783380508422852
        max:
        -   7.5304436683654785
        scale:
        -   0.0718189183403464
        zero_point:
        -   22
        ori_min:
        -   -10.783380508422852
        ori_max:
        -   7.5304436683654785
    /model.12/m.0/cv1/act/Mul_output_0:
        qtype: asymmetric_quantized
        qmethod: layer
        dtype: int8
        min:
        -   -0.27846458554267883
        max:
        -   7.526406288146973
        scale:
        -   0.030607336759567262
        zero_point:
        -   -119
        ori_min:
        -   -0.27846458554267883
        ori_max:
        -   7.526406288146973
    /model.12/m.0/cv2/conv/Conv_output_0:
        qtype: asymmetric_quantized
        qmethod: layer
        dtype: int8
        min:
        -   -10.018730163574219
        max:
        -   10.692229270935059
        scale:
        -   0.08121944876278148
        zero_point:
        -   -5
        ori_min:
        -   -10.018730163574219
        ori_max:
        -   10.692229270935059
    /model.12/m.0/cv2/act/Mul_output_0:
        qtype: asymmetric_quantized
        qmethod: layer
        dtype: int8
        min:
        -   -0.27846455574035645
        max:
        -   10.691986083984375
        scale:
        -   0.043021375057744046
        zero_point:
        -   -122
        ori_min:
        -   -0.27846455574035645
        ori_max:
        -   10.691986083984375
    /model.12/Concat_output_0:
        qtype: asymmetric_quantized
        qmethod: layer
        dtype: int8
        min:
        -   -0.27846458554267883
        max:
        -   11.0879487991333
        scale:
        -   0.044574170135984234
        zero_point:
        -   -122
        ori_min:
        -   -0.27846458554267883
        ori_max:
        -   11.0879487991333
    /model.12/cv2/conv/Conv_output_0:
        qtype: asymmetric_quantized
        qmethod: layer
        dtype: int8
        min:
        -   -14.974462509155273
        max:
        -   8.370920181274414
        scale:
        -   0.09155052035462623
        zero_point:
        -   36
        ori_min:
        -   -14.974462509155273
        ori_max:
        -   8.370920181274414
    /model.12/cv2/act/Mul_output_0:
        qtype: asymmetric_quantized
        qmethod: layer
        dtype: int8
        min:
        -   -0.27846458554267883
        max:
        -   8.368982315063477
        scale:
        -   0.033911556472965315
        zero_point:
        -   -120
        ori_min:
        -   -0.27846458554267883
        ori_max:
        -   8.368982315063477
    /model.13/Resize_output_0:
        qtype: asymmetric_quantized
        qmethod: layer
        dtype: int8
        min:
        -   -0.27846458554267883
        max:
        -   8.368982315063477
        scale:
        -   0.033911556472965315
        zero_point:
        -   -120
        ori_min:
        -   -0.27846458554267883
        ori_max:
        -   8.368982315063477
    /model.14/Concat_output_0:
        qtype: asymmetric_quantized
        qmethod: layer
        dtype: int8
        min:
        -   -0.27846458554267883
        max:
        -   8.835747718811035
        scale:
        -   0.03574200903668123
        zero_point:
        -   -120
        ori_min:
        -   -0.27846458554267883
        ori_max:
        -   8.835747718811035
    /model.15/cv1/conv/Conv_output_0:
        qtype: asymmetric_quantized
        qmethod: layer
        dtype: int8
        min:
        -   -10.058499336242676
        max:
        -   4.661600112915039
        scale:
        -   0.05772588019277535
        zero_point:
        -   46
        ori_min:
        -   -10.058499336242676
        ori_max:
        -   4.661600112915039
    /model.15/cv1/act/Mul_output_0:
        qtype: asymmetric_quantized
        qmethod: layer
        dtype: int8
        min:
        -   -0.27846458554267883
        max:
        -   4.617954730987549
        scale:
        -   0.019201644378549914
        zero_point:
        -   -113
        ori_min:
        -   -0.27846458554267883
        ori_max:
        -   4.617954730987549
    /model.15/Split_output_0:
        qtype: asymmetric_quantized
        qmethod: layer
        dtype: int8
        min:
        -   -0.27846458554267883
        max:
        -   4.617954730987549
        scale:
        -   0.019201644378549914
        zero_point:
        -   -113
        ori_min:
        -   -0.27846458554267883
        ori_max:
        -   4.617954730987549
    /model.15/Split_output_1:
        qtype: asymmetric_quantized
        qmethod: layer
        dtype: int8
        min:
        -   -0.27846458554267883
        max:
        -   4.468088150024414
        scale:
        -   0.01861393229634154
        zero_point:
        -   -113
        ori_min:
        -   -0.27846458554267883
        ori_max:
        -   4.468088150024414
    /model.15/m.0/cv1/conv/Conv_output_0:
        qtype: asymmetric_quantized
        qmethod: layer
        dtype: int8
        min:
        -   -6.8716630935668945
        max:
        -   4.991857051849365
        scale:
        -   0.046523608413397095
        zero_point:
        -   20
        ori_min:
        -   -6.8716630935668945
        ori_max:
        -   4.991857051849365
    /model.15/m.0/cv1/act/Mul_output_0:
        qtype: asymmetric_quantized
        qmethod: layer
        dtype: int8
        min:
        -   -0.27846458554267883
        max:
        -   4.958176136016846
        scale:
        -   0.020535845966900095
        zero_point:
        -   -114
        ori_min:
        -   -0.27846458554267883
        ori_max:
        -   4.958176136016846
    /model.15/m.0/cv2/conv/Conv_output_0:
        qtype: asymmetric_quantized
        qmethod: layer
        dtype: int8
        min:
        -   -9.159454345703125
        max:
        -   8.58651065826416
        scale:
        -   0.06959201962340111
        zero_point:
        -   4
        ori_min:
        -   -9.159454345703125
        ori_max:
        -   8.58651065826416
    /model.15/m.0/cv2/act/Mul_output_0:
        qtype: asymmetric_quantized
        qmethod: layer
        dtype: int8
        min:
        -   -0.27846455574035645
        max:
        -   8.584909439086914
        scale:
        -   0.03475832939147949
        zero_point:
        -   -120
        ori_min:
        -   -0.27846455574035645
        ori_max:
        -   8.584909439086914
    /model.15/Concat_output_0:
        qtype: asymmetric_quantized
        qmethod: layer
        dtype: int8
        min:
        -   -0.27846458554267883
        max:
        -   8.584909439086914
        scale:
        -   0.034758329508351345
        zero_point:
        -   -120
        ori_min:
        -   -0.27846458554267883
        ori_max:
        -   8.584909439086914
    /model.15/cv2/conv/Conv_output_0:
        qtype: asymmetric_quantized
        qmethod: layer
        dtype: int8
        min:
        -   -10.01939868927002
        max:
        -   6.802799701690674
        scale:
        -   0.06596940545474782
        zero_point:
        -   24
        ori_min:
        -   -10.01939868927002
        ori_max:
        -   6.802799701690674
    /model.15/cv2/act/Mul_output_0:
        qtype: asymmetric_quantized
        qmethod: layer
        dtype: int8
        min:
        -   -0.27846458554267883
        max:
        -   6.795252323150635
        scale:
        -   0.02774006630860123
        zero_point:
        -   -118
        ori_min:
        -   -0.27846458554267883
        ori_max:
        -   6.795252323150635
    /model.16/conv/Conv_output_0:
        qtype: asymmetric_quantized
        qmethod: layer
        dtype: int8
        min:
        -   -9.712564468383789
        max:
        -   9.60164737701416
        scale:
        -   0.0757420072368547
        zero_point:
        -   0
        ori_min:
        -   -9.712564468383789
        ori_max:
        -   9.60164737701416
    /model.16/act/Mul_output_0:
        qtype: asymmetric_quantized
        qmethod: layer
        dtype: int8
        min:
        -   -0.27846458554267883
        max:
        -   9.600997924804688
        scale:
        -   0.03874299023665634
        zero_point:
        -   -121
        ori_min:
        -   -0.27846458554267883
        ori_max:
        -   9.600997924804688
    /model.17/Concat_output_0:
        qtype: asymmetric_quantized
        qmethod: layer
        dtype: int8
        min:
        -   -0.27846458554267883
        max:
        -   9.600997924804688
        scale:
        -   0.03874299023665634
        zero_point:
        -   -121
        ori_min:
        -   -0.27846458554267883
        ori_max:
        -   9.600997924804688
    /model.18/cv1/conv/Conv_output_0:
        qtype: asymmetric_quantized
        qmethod: layer
        dtype: int8
        min:
        -   -11.26512336730957
        max:
        -   8.566205024719238
        scale:
        -   0.07776991526285808
        zero_point:
        -   17
        ori_min:
        -   -11.26512336730957
        ori_max:
        -   8.566205024719238
    /model.18/cv1/act/Mul_output_0:
        qtype: asymmetric_quantized
        qmethod: layer
        dtype: int8
        min:
        -   -0.27846458554267883
        max:
        -   8.5645751953125
        scale:
        -   0.03467858737590266
        zero_point:
        -   -120
        ori_min:
        -   -0.27846458554267883
        ori_max:
        -   8.5645751953125
    /model.18/Split_output_0:
        qtype: asymmetric_quantized
        qmethod: layer
        dtype: int8
        min:
        -   -0.27846458554267883
        max:
        -   7.88637638092041
        scale:
        -   0.03201898418220819
        zero_point:
        -   -119
        ori_min:
        -   -0.27846458554267883
        ori_max:
        -   7.88637638092041
    /model.18/Split_output_1:
        qtype: asymmetric_quantized
        qmethod: layer
        dtype: int8
        min:
        -   -0.27846458554267883
        max:
        -   8.5645751953125
        scale:
        -   0.03467858737590266
        zero_point:
        -   -120
        ori_min:
        -   -0.27846458554267883
        ori_max:
        -   8.5645751953125
    /model.18/m.0/cv1/conv/Conv_output_0:
        qtype: asymmetric_quantized
        qmethod: layer
        dtype: int8
        min:
        -   -8.205085754394531
        max:
        -   4.9837212562561035
        scale:
        -   0.051720811806473074
        zero_point:
        -   31
        ori_min:
        -   -8.205085754394531
        ori_max:
        -   4.9837212562561035
    /model.18/m.0/cv1/act/Mul_output_0:
        qtype: asymmetric_quantized
        qmethod: layer
        dtype: int8
        min:
        -   -0.27846458554267883
        max:
        -   4.949821949005127
        scale:
        -   0.020503084449207083
        zero_point:
        -   -114
        ori_min:
        -   -0.27846458554267883
        ori_max:
        -   4.949821949005127
    /model.18/m.0/cv2/conv/Conv_output_0:
        qtype: asymmetric_quantized
        qmethod: layer
        dtype: int8
        min:
        -   -14.279706001281738
        max:
        -   14.624942779541016
        scale:
        -   0.11335156384636375
        zero_point:
        -   -2
        ori_min:
        -   -14.279706001281738
        ori_max:
        -   14.624942779541016
    /model.18/m.0/cv2/act/Mul_output_0:
        qtype: asymmetric_quantized
        qmethod: layer
        dtype: int8
        min:
        -   -0.27846458554267883
        max:
        -   14.6249361038208
        scale:
        -   0.058444708585739136
        zero_point:
        -   -123
        ori_min:
        -   -0.27846458554267883
        ori_max:
        -   14.6249361038208
    /model.18/Concat_output_0:
        qtype: asymmetric_quantized
        qmethod: layer
        dtype: int8
        min:
        -   -0.27846458554267883
        max:
        -   14.6249361038208
        scale:
        -   0.058444708585739136
        zero_point:
        -   -123
        ori_min:
        -   -0.27846458554267883
        ori_max:
        -   14.6249361038208
    /model.18/cv2/conv/Conv_output_0:
        qtype: asymmetric_quantized
        qmethod: layer
        dtype: int8
        min:
        -   -15.154806137084961
        max:
        -   7.309278964996338
        scale:
        -   0.08809445138071098
        zero_point:
        -   44
        ori_min:
        -   -15.154806137084961
        ori_max:
        -   7.309278964996338
    /model.18/cv2/act/Mul_output_0:
        qtype: asymmetric_quantized
        qmethod: layer
        dtype: int8
        min:
        -   -0.27846458554267883
        max:
        -   7.304390907287598
        scale:
        -   0.029736688207177554
        zero_point:
        -   -119
        ori_min:
        -   -0.27846458554267883
        ori_max:
        -   7.304390907287598
    /model.19/conv/Conv_output_0:
        qtype: asymmetric_quantized
        qmethod: layer
        dtype: int8
        min:
        -   -16.45287322998047
        max:
        -   9.240601539611816
        scale:
        -   0.10075872458663641
        zero_point:
        -   35
        ori_min:
        -   -16.45287322998047
        ori_max:
        -   9.240601539611816
    /model.19/act/Mul_output_0:
        qtype: asymmetric_quantized
        qmethod: layer
        dtype: int8
        min:
        -   -0.27846458554267883
        max:
        -   9.239705085754395
        scale:
        -   0.037326155573714014
        zero_point:
        -   -121
        ori_min:
        -   -0.27846458554267883
        ori_max:
        -   9.239705085754395
    /model.20/Concat_output_0:
        qtype: asymmetric_quantized
        qmethod: layer
        dtype: int8
        min:
        -   -0.27846458554267883
        max:
        -   11.058113098144531
        scale:
        -   0.04445716738700867
        zero_point:
        -   -122
        ori_min:
        -   -0.27846458554267883
        ori_max:
        -   11.058113098144531
    /model.21/cv1/conv/Conv_output_0:
        qtype: asymmetric_quantized
        qmethod: layer
        dtype: int8
        min:
        -   -16.968448638916016
        max:
        -   11.896747589111328
        scale:
        -   0.11319684795304841
        zero_point:
        -   22
        ori_min:
        -   -16.968448638916016
        ori_max:
        -   11.896747589111328
    /model.21/cv1/act/Mul_output_0:
        qtype: asymmetric_quantized
        qmethod: layer
        dtype: int8
        min:
        -   -0.27846458554267883
        max:
        -   11.896666526794434
        scale:
        -   0.04774561220524358
        zero_point:
        -   -122
        ori_min:
        -   -0.27846458554267883
        ori_max:
        -   11.896666526794434
    /model.21/Split_output_0:
        qtype: asymmetric_quantized
        qmethod: layer
        dtype: int8
        min:
        -   -0.27846458554267883
        max:
        -   11.896666526794434
        scale:
        -   0.04774561220524358
        zero_point:
        -   -122
        ori_min:
        -   -0.27846458554267883
        ori_max:
        -   11.896666526794434
    /model.21/Split_output_1:
        qtype: asymmetric_quantized
        qmethod: layer
        dtype: int8
        min:
        -   -0.27846458554267883
        max:
        -   10.517887115478516
        scale:
        -   0.042338634121651744
        zero_point:
        -   -121
        ori_min:
        -   -0.27846458554267883
        ori_max:
        -   10.517887115478516
    /model.21/m.0/cv1/conv/Conv_output_0:
        qtype: asymmetric_quantized
        qmethod: layer
        dtype: int8
        min:
        -   -11.523184776306152
        max:
        -   8.113831520080566
        scale:
        -   0.0770079070446538
        zero_point:
        -   22
        ori_min:
        -   -11.523184776306152
        ori_max:
        -   8.113831520080566
    /model.21/m.0/cv1/act/Mul_output_0:
        qtype: asymmetric_quantized
        qmethod: layer
        dtype: int8
        min:
        -   -0.27846458554267883
        max:
        -   8.111403465270996
        scale:
        -   0.032901443336524214
        zero_point:
        -   -120
        ori_min:
        -   -0.27846458554267883
        ori_max:
        -   8.111403465270996
    /model.21/m.0/cv2/conv/Conv_output_0:
        qtype: asymmetric_quantized
        qmethod: layer
        dtype: int8
        min:
        -   -13.743653297424316
        max:
        -   14.257845878601074
        scale:
        -   0.10980980069029565
        zero_point:
        -   -3
        ori_min:
        -   -13.743653297424316
        ori_max:
        -   14.257845878601074
    /model.21/m.0/cv2/act/Mul_output_0:
        qtype: asymmetric_quantized
        qmethod: layer
        dtype: int8
        min:
        -   -0.27846455574035645
        max:
        -   14.257837295532227
        scale:
        -   0.05700510529910817
        zero_point:
        -   -123
        ori_min:
        -   -0.27846455574035645
        ori_max:
        -   14.257837295532227
    /model.21/Concat_output_0:
        qtype: asymmetric_quantized
        qmethod: layer
        dtype: int8
        min:
        -   -0.27846458554267883
        max:
        -   14.257837295532227
        scale:
        -   0.05700510541598002
        zero_point:
        -   -123
        ori_min:
        -   -0.27846458554267883
        ori_max:
        -   14.257837295532227
    /model.21/cv2/conv/Conv_output_0:
        qtype: asymmetric_quantized
        qmethod: layer
        dtype: int8
        min:
        -   -26.043874740600586
        max:
        -   10.643041610717773
        scale:
        -   0.14387026020124846
        zero_point:
        -   53
        ori_min:
        -   -26.043874740600586
        ori_max:
        -   10.643041610717773
    /model.21/cv2/act/Mul_output_0:
        qtype: asymmetric_quantized
        qmethod: layer
        dtype: int8
        min:
        -   -0.27846458554267883
        max:
        -   10.64278793334961
        scale:
        -   0.04282844125055799
        zero_point:
        -   -121
        ori_min:
        -   -0.27846458554267883
        ori_max:
        -   10.64278793334961
    /model.22/cv2.2/cv2.2.0/conv/Conv_output_0:
        qtype: asymmetric_quantized
        qmethod: layer
        dtype: int8
        min:
        -   -19.256105422973633
        max:
        -   13.986257553100586
        scale:
        -   0.13036220774931065
        zero_point:
        -   20
        ori_min:
        -   -19.256105422973633
        ori_max:
        -   13.986257553100586
    /model.22/cv2.2/cv2.2.0/act/Mul_output_0:
        qtype: asymmetric_quantized
        qmethod: layer
        dtype: int8
        min:
        -   -0.27846458554267883
        max:
        -   13.986246109008789
        scale:
        -   0.05594004193941752
        zero_point:
        -   -123
        ori_min:
        -   -0.27846458554267883
        ori_max:
        -   13.986246109008789
    /model.22/cv2.2/cv2.2.1/conv/Conv_output_0:
        qtype: asymmetric_quantized
        qmethod: layer
        dtype: int8
        min:
        -   -27.482059478759766
        max:
        -   48.92039489746094
        scale:
        -   0.299617468142042
        zero_point:
        -   -36
        ori_min:
        -   -27.482059478759766
        ori_max:
        -   48.92039489746094
    /model.22/cv2.2/cv2.2.1/act/Mul_output_0:
        qtype: asymmetric_quantized
        qmethod: layer
        dtype: int8
        min:
        -   -0.27846455574035645
        max:
        -   48.92039489746094
        scale:
        -   0.19293670373804428
        zero_point:
        -   -127
        ori_min:
        -   -0.27846455574035645
        ori_max:
        -   48.92039489746094
    /model.22/cv2.2/cv2.2.2/Conv_output_0:
        qtype: asymmetric_quantized
        qmethod: layer
        dtype: int8
        min:
        -   -8.047457695007324
        max:
        -   13.64297103881836
        scale:
        -   0.08506050483853209
        zero_point:
        -   -33
        ori_min:
        -   -8.047457695007324
        ori_max:
        -   13.64297103881836
    /model.22/cv3.2/cv3.2.0/conv/Conv_output_0:
        qtype: asymmetric_quantized
        qmethod: layer
        dtype: int8
        min:
        -   -26.055137634277344
        max:
        -   11.283674240112305
        scale:
        -   0.14642671323290057
        zero_point:
        -   50
        ori_min:
        -   -26.055137634277344
        ori_max:
        -   11.283674240112305
    /model.22/cv3.2/cv3.2.0/act/Mul_output_0:
        qtype: asymmetric_quantized
        qmethod: layer
        dtype: int8
        min:
        -   -0.27846455574035645
        max:
        -   11.283533096313477
        scale:
        -   0.04534116726295621
        zero_point:
        -   -122
        ori_min:
        -   -0.27846455574035645
        ori_max:
        -   11.283533096313477
    /model.22/cv3.2/cv3.2.1/conv/Conv_output_0:
        qtype: asymmetric_quantized
        qmethod: layer
        dtype: int8
        min:
        -   -72.67142486572266
        max:
        -   91.18895721435547
        scale:
        -   0.6425897336473652
        zero_point:
        -   -15
        ori_min:
        -   -72.67142486572266
        ori_max:
        -   91.18895721435547
    /model.22/cv3.2/cv3.2.1/act/Mul_output_0:
        qtype: asymmetric_quantized
        qmethod: layer
        dtype: int8
        min:
        -   -0.27846455574035645
        max:
        -   91.18895721435547
        scale:
        -   0.3586957716474346
        zero_point:
        -   -127
        ori_min:
        -   -0.27846455574035645
        ori_max:
        -   91.18895721435547
    /model.22/cv3.2/cv3.2.2/Conv_output_0:
        qtype: asymmetric_quantized
        qmethod: layer
        dtype: int8
        min:
        -   -8.464925765991211
        max:
        -   3.113391876220703
        scale:
        -   0.04540516722436045
        zero_point:
        -   58
        ori_min:
        -   -54.840728759765625
        ori_max:
        -   3.113391876220703
    /model.22/Concat_2_output_0:
        qtype: asymmetric_quantized
        qmethod: layer
        dtype: int8
        min:
        -   -8.464925765991211
        max:
        -   13.64297103881836
        scale:
        -   0.08669763452866498
        zero_point:
        -   -30
        ori_min:
        -   -54.840728759765625
        ori_max:
        -   13.64297103881836
    /model.22/Reshape_2_output_0_shape4_/model.22/Concat_3:
        qtype: asymmetric_quantized
        qmethod: layer
        dtype: int8
        min:
        -   -8.464925765991211
        max:
        -   13.64297103881836
        scale:
        -   0.08669763452866498
        zero_point:
        -   -30
        ori_min:
        -   -54.840728759765625
        ori_max:
        -   13.64297103881836
    /model.22/cv2.1/cv2.1.0/conv/Conv_output_0:
        qtype: asymmetric_quantized
        qmethod: layer
        dtype: int8
        min:
        -   -18.648834228515625
        max:
        -   11.351075172424316
        scale:
        -   0.11764670353309781
        zero_point:
        -   31
        ori_min:
        -   -18.648834228515625
        ori_max:
        -   11.351075172424316
    /model.22/cv2.1/cv2.1.0/act/Mul_output_0:
        qtype: asymmetric_quantized
        qmethod: layer
        dtype: int8
        min:
        -   -0.27846458554267883
        max:
        -   11.35094165802002
        scale:
        -   0.04560551468063803
        zero_point:
        -   -122
        ori_min:
        -   -0.27846458554267883
        ori_max:
        -   11.35094165802002
    /model.22/cv2.1/cv2.1.1/conv/Conv_output_0:
        qtype: asymmetric_quantized
        qmethod: layer
        dtype: int8
        min:
        -   -35.88257598876953
        max:
        -   59.553504943847656
        scale:
        -   0.3742591409122243
        zero_point:
        -   -32
        ori_min:
        -   -35.88257598876953
        ori_max:
        -   59.553504943847656
    /model.22/cv2.1/cv2.1.1/act/Mul_output_0:
        qtype: asymmetric_quantized
        qmethod: layer
        dtype: int8
        min:
        -   -0.27846455574035645
        max:
        -   59.553504943847656
        scale:
        -   0.2346351745081883
        zero_point:
        -   -127
        ori_min:
        -   -0.27846455574035645
        ori_max:
        -   59.553504943847656
    /model.22/cv2.1/cv2.1.2/Conv_output_0:
        qtype: asymmetric_quantized
        qmethod: layer
        dtype: int8
        min:
        -   -8.35695743560791
        max:
        -   15.629605293273926
        scale:
        -   0.09406495187796798
        zero_point:
        -   -39
        ori_min:
        -   -8.35695743560791
        ori_max:
        -   15.629605293273926
    /model.22/cv3.1/cv3.1.0/conv/Conv_output_0:
        qtype: asymmetric_quantized
        qmethod: layer
        dtype: int8
        min:
        -   -21.118209838867188
        max:
        -   10.751592636108398
        scale:
        -   0.12497961754892387
        zero_point:
        -   41
        ori_min:
        -   -21.118209838867188
        ori_max:
        -   10.751592636108398
    /model.22/cv3.1/cv3.1.0/act/Mul_output_0:
        qtype: asymmetric_quantized
        qmethod: layer
        dtype: int8
        min:
        -   -0.27846458554267883
        max:
        -   10.751361846923828
        scale:
        -   0.043254221303790225
        zero_point:
        -   -122
        ori_min:
        -   -0.27846458554267883
        ori_max:
        -   10.751361846923828
    /model.22/cv3.1/cv3.1.1/conv/Conv_output_0:
        qtype: asymmetric_quantized
        qmethod: layer
        dtype: int8
        min:
        -   -132.95726013183594
        max:
        -   143.82846069335938
        scale:
        -   1.0854341993144914
        zero_point:
        -   -6
        ori_min:
        -   -132.95726013183594
        ori_max:
        -   143.82846069335938
    /model.22/cv3.1/cv3.1.1/act/Mul_output_0:
        qtype: asymmetric_quantized
        qmethod: layer
        dtype: int8
        min:
        -   -0.27846458554267883
        max:
        -   143.82846069335938
        scale:
        -   0.5651251971721649
        zero_point:
        -   -128
        ori_min:
        -   -0.27846458554267883
        ori_max:
        -   143.82846069335938
    /model.22/cv3.1/cv3.1.2/Conv_output_0:
        qtype: asymmetric_quantized
        qmethod: layer
        dtype: int8
        min:
        -   -8.464925765991211
        max:
        -   2.666293144226074
        scale:
        -   0.0436518388635972
        zero_point:
        -   66
        ori_min:
        -   -61.94551467895508
        ori_max:
        -   2.666293144226074
    /model.22/Concat_1_output_0:
        qtype: asymmetric_quantized
        qmethod: layer
        dtype: int8
        min:
        -   -8.464925765991211
        max:
        -   15.629605293273926
        scale:
        -   0.0944883570951574
        zero_point:
        -   -38
        ori_min:
        -   -61.94551467895508
        ori_max:
        -   15.629605293273926
    /model.22/Reshape_1_output_0_shape4_/model.22/Concat_3:
        qtype: asymmetric_quantized
        qmethod: layer
        dtype: int8
        min:
        -   -8.464925765991211
        max:
        -   15.629605293273926
        scale:
        -   0.0944883570951574
        zero_point:
        -   -38
        ori_min:
        -   -61.94551467895508
        ori_max:
        -   15.629605293273926
    /model.22/cv2.0/cv2.0.0/conv/Conv_output_0:
        qtype: asymmetric_quantized
        qmethod: layer
        dtype: int8
        min:
        -   -18.39703941345215
        max:
        -   7.792793273925781
        scale:
        -   0.10270522622501149
        zero_point:
        -   51
        ori_min:
        -   -18.39703941345215
        ori_max:
        -   7.792793273925781
    /model.22/cv2.0/cv2.0.0/act/Mul_output_0:
        qtype: asymmetric_quantized
        qmethod: layer
        dtype: int8
        min:
        -   -0.27846458554267883
        max:
        -   7.789578437805176
        scale:
        -   0.03163938440528571
        zero_point:
        -   -119
        ori_min:
        -   -0.27846458554267883
        ori_max:
        -   7.789578437805176
    /model.22/cv2.0/cv2.0.1/conv/Conv_output_0:
        qtype: asymmetric_quantized
        qmethod: layer
        dtype: int8
        min:
        -   -32.70865249633789
        max:
        -   46.740203857421875
        scale:
        -   0.3115641425637638
        zero_point:
        -   -23
        ori_min:
        -   -32.70865249633789
        ori_max:
        -   46.740203857421875
    /model.22/cv2.0/cv2.0.1/act/Mul_output_0:
        qtype: asymmetric_quantized
        qmethod: layer
        dtype: int8
        min:
        -   -0.27846458554267883
        max:
        -   46.740203857421875
        scale:
        -   0.18438693507044923
        zero_point:
        -   -126
        ori_min:
        -   -0.27846458554267883
        ori_max:
        -   46.740203857421875
    /model.22/cv2.0/cv2.0.2/Conv_output_0:
        qtype: asymmetric_quantized
        qmethod: layer
        dtype: int8
        min:
        -   -8.464925765991211
        max:
        -   24.77503776550293
        scale:
        -   0.13035279816272213
        zero_point:
        -   -63
        ori_min:
        -   -8.464925765991211
        ori_max:
        -   24.77503776550293
    /model.22/cv3.0/cv3.0.0/conv/Conv_output_0:
        qtype: asymmetric_quantized
        qmethod: layer
        dtype: int8
        min:
        -   -14.628227233886719
        max:
        -   7.6078410148620605
        scale:
        -   0.08720026764215208
        zero_point:
        -   40
        ori_min:
        -   -14.628227233886719
        ori_max:
        -   7.6078410148620605
    /model.22/cv3.0/cv3.0.0/act/Mul_output_0:
        qtype: asymmetric_quantized
        qmethod: layer
        dtype: int8
        min:
        -   -0.27846458554267883
        max:
        -   7.604065418243408
        scale:
        -   0.030911882367788576
        zero_point:
        -   -119
        ori_min:
        -   -0.27846458554267883
        ori_max:
        -   7.604065418243408
    /model.22/cv3.0/cv3.0.1/conv/Conv_output_0:
        qtype: asymmetric_quantized
        qmethod: layer
        dtype: int8
        min:
        -   -103.7575912475586
        max:
        -   100.02832794189453
        scale:
        -   0.7991604674096201
        zero_point:
        -   2
        ori_min:
        -   -103.7575912475586
        ori_max:
        -   100.02832794189453
    /model.22/cv3.0/cv3.0.1/act/Mul_output_0:
        qtype: asymmetric_quantized
        qmethod: layer
        dtype: int8
        min:
        -   -0.27846458554267883
        max:
        -   100.02832794189453
        scale:
        -   0.3933599706958322
        zero_point:
        -   -127
        ori_min:
        -   -0.27846458554267883
        ori_max:
        -   100.02832794189453
    /model.22/cv3.0/cv3.0.2/Conv_output_0:
        qtype: asymmetric_quantized
        qmethod: layer
        dtype: int8
        min:
        -   -8.464925765991211
        max:
        -   1.7255229949951172
        scale:
        -   0.039962544160730695
        zero_point:
        -   84
        ori_min:
        -   -41.58077621459961
        ori_max:
        -   1.7255229949951172
    /model.22/Concat_output_0:
        qtype: asymmetric_quantized
        qmethod: layer
        dtype: int8
        min:
        -   -8.464925765991211
        max:
        -   24.77503776550293
        scale:
        -   0.13035279816272213
        zero_point:
        -   -63
        ori_min:
        -   -41.58077621459961
        ori_max:
        -   24.77503776550293
    /model.22/Reshape_output_0_shape4_/model.22/Concat_3:
        qtype: asymmetric_quantized
        qmethod: layer
        dtype: int8
        min:
        -   -8.464925765991211
        max:
        -   24.77503776550293
        scale:
        -   0.13035279816272213
        zero_point:
        -   -63
        ori_min:
        -   -41.58077621459961
        ori_max:
        -   24.77503776550293
    /model.22/Concat_3_output_0:
        qtype: asymmetric_quantized
        qmethod: layer
        dtype: int8
        min:
        -   -8.464925765991211
        max:
        -   24.77503776550293
        scale:
        -   0.13035279816272213
        zero_point:
        -   -63
        ori_min:
        -   -61.94551467895508
        ori_max:
        -   24.77503776550293
    /model.22/Split_output_0_shape4:
        qtype: asymmetric_quantized
        qmethod: layer
        dtype: int8
        min:
        -   -8.464925765991211
        max:
        -   24.77503776550293
        scale:
        -   0.13035279816272213
        zero_point:
        -   -63
        ori_min:
        -   -8.464925765991211
        ori_max:
        -   24.77503776550293
    /model.22/Split_output_1:
        qtype: asymmetric_quantized
        qmethod: layer
        dtype: int8
        min:
        -   -7.0
        max:
        -   3.113391876220703
        scale:
        -   0.03966036029890472
        zero_point:
        -   48
        ori_min:
        -   -61.94551467895508
        ori_max:
        -   3.113391876220703
    /model.22/dfl/Reshape_output_0:
        qtype: asymmetric_quantized
        qmethod: layer
        dtype: int8
        min:
        -   -8.464925765991211
        max:
        -   24.77503776550293
        scale:
        -   0.13035279816272213
        zero_point:
        -   -63
        ori_min:
        -   -8.464925765991211
        ori_max:
        -   24.77503776550293
    /model.22/dfl/Softmax_pre_tp:
        qtype: asymmetric_quantized
        qmethod: layer
        dtype: int8
        min:
        -   -8.464925765991211
        max:
        -   24.77503776550293
        scale:
        -   0.13035279816272213
        zero_point:
        -   -63
        ori_min:
        -   -8.464925765991211
        ori_max:
        -   24.77503776550293
    /model.22/dfl/Softmax_new:
        qtype: asymmetric_quantized
        qmethod: layer
        dtype: int8
        min:
        -   0.0
        max:
        -   0.961770236492157
        scale:
        -   0.003771647986243753
        zero_point:
        -   -128
        ori_min:
        -   3.591949261356857e-14
        ori_max:
        -   0.961770236492157
    /model.22/dfl/conv/Conv_output_0:
        qtype: asymmetric_quantized
        qmethod: layer
        dtype: int8
        min:
        -   0.0
        max:
        -   14.508811950683594
        scale:
        -   0.056897301767386645
        zero_point:
        -   -128
        ori_min:
        -   0.038711272180080414
        ori_max:
        -   14.508811950683594
    /model.22/dfl/Reshape_1_output_0_shape4_/model.22/Slice_2split:
        qtype: asymmetric_quantized
        qmethod: layer
        dtype: int8
        min:
        -   0.0
        max:
        -   14.508811950683594
        scale:
        -   0.056897301767386645
        zero_point:
        -   -128
        ori_min:
        -   0.038711272180080414
        ori_max:
        -   14.508811950683594
    /model.22/dfl/Reshape_1_output_0_shape4_/model.22/Slice_2split_conv_/model.22/Slice_2split:
        qtype: asymmetric_quantized
        qmethod: layer
        dtype: int8
        min:
        -   0.0
        max:
        -   14.508811950683594
        scale:
        -   0.056897301767386645
        zero_point:
        -   -128
        ori_min:
        -   0.0
        ori_max:
        -   14.508811950683594
    /model.22/Slice_output_0_shape4_before_conv:
        qtype: asymmetric_quantized
        qmethod: layer
        dtype: int8
        min:
        -   0.0
        max:
        -   14.508811950683594
        scale:
        -   0.056897301767386645
        zero_point:
        -   -128
        ori_min:
        -   0.0
        ori_max:
        -   14.508811950683594
    /model.22/Slice_1_output_0:
        qtype: asymmetric_quantized
        qmethod: layer
        dtype: int8
        min:
        -   0.0
        max:
        -   14.16400146484375
        scale:
        -   0.05554510378370098
        zero_point:
        -   -128
        ori_min:
        -   0.03989183530211449
        ori_max:
        -   14.16400146484375
    /model.22/Slice_output_0:
        qtype: asymmetric_quantized
        qmethod: layer
        dtype: int8
        min:
        -   0.0
        max:
        -   14.508811950683594
        scale:
        -   0.056897301767386645
        zero_point:
        -   -128
        ori_min:
        -   0.038711272180080414
        ori_max:
        -   14.508811950683594
    /model.22/Sub_output_0:
        qtype: asymmetric_quantized
        qmethod: layer
        dtype: int8
        min:
        -   -3.3460636138916016
        max:
        -   79.3517837524414
        scale:
        -   0.3243052837895412
        zero_point:
        -   -118
        ori_min:
        -   -3.3460636138916016
        ori_max:
        -   79.3517837524414
    /model.22/Add_1_output_0:
        qtype: asymmetric_quantized
        qmethod: layer
        dtype: int8
        min:
        -   0.0
        max:
        -   83.15538024902344
        scale:
        -   0.32609953038832723
        zero_point:
        -   -128
        ori_min:
        -   0.6028468608856201
        ori_max:
        -   83.15538024902344
    /model.22/Sub_1_output_0:
        qtype: asymmetric_quantized
        qmethod: layer
        dtype: int8
        min:
        -   0.0
        max:
        -   28.006229400634766
        scale:
        -   0.10982835059072457
        zero_point:
        -   -128
        ori_min:
        -   0.3753213882446289
        ori_max:
        -   28.006229400634766
    /model.22/Concat_4_swap_concat_reshape_i1_out:
        qtype: asymmetric_quantized
        qmethod: layer
        dtype: int8
        min:
        -   0.0
        max:
        -   28.006229400634766
        scale:
        -   0.10982835059072457
        zero_point:
        -   -128
        ori_min:
        -   0.3753213882446289
        ori_max:
        -   28.006229400634766
    /model.22/Add_2_output_0:
        qtype: asymmetric_quantized
        qmethod: layer
        dtype: int8
        min:
        -   0.0
        max:
        -   159.3308563232422
        scale:
        -   0.6248268875421262
        zero_point:
        -   -128
        ori_min:
        -   0.2884661555290222
        ori_max:
        -   159.3308563232422
    /model.22/Div_1_output_0:
        qtype: asymmetric_quantized
        qmethod: layer
        dtype: int8
        min:
        -   0.0
        max:
        -   79.6654281616211
        scale:
        -   0.3124134437710631
        zero_point:
        -   -128
        ori_min:
        -   0.1442330777645111
        ori_max:
        -   79.6654281616211
    /model.22/Concat_4_swap_concat_reshape_i0_out:
        qtype: asymmetric_quantized
        qmethod: layer
        dtype: int8
        min:
        -   0.0
        max:
        -   79.6654281616211
        scale:
        -   0.3124134437710631
        zero_point:
        -   -128
        ori_min:
        -   0.1442330777645111
        ori_max:
        -   79.6654281616211
    /model.22/Concat_4_output_0_shape4:
        qtype: asymmetric_quantized
        qmethod: layer
        dtype: int8
        min:
        -   0.0
        max:
        -   79.6654281616211
        scale:
        -   0.3124134437710631
        zero_point:
        -   -128
        ori_min:
        -   0.1442330777645111
        ori_max:
        -   79.6654281616211
    /model.22/Mul_2_output_0_before:
        qtype: asymmetric_quantized
        qmethod: layer
        dtype: int8
        min:
        -   0.0
        max:
        -   653.3016357421875
        scale:
        -   2.5619671989889707
        zero_point:
        -   -128
        ori_min:
        -   2.196770429611206
        ori_max:
        -   653.3016357421875
    /model.22/Sigmoid_output_0:
        qtype: asymmetric_quantized
        qmethod: layer
        dtype: int8
        min:
        -   0.0
        max:
        -   0.9574418067932129
        scale:
        -   0.0037546737521302466
        zero_point:
        -   -128
        ori_min:
        -   0.0
        ori_max:
        -   0.9574418067932129
    /model.22/Concat_5_swap_concat_reshape_i1_out:
        qtype: asymmetric_quantized
        qmethod: layer
        dtype: int8
        min:
        -   0.0
        max:
        -   0.9574418067932129
        scale:
        -   0.0037546737521302466
        zero_point:
        -   -128
        ori_min:
        -   0.0
        ori_max:
        -   0.9574418067932129
    output0_shape4:
        qtype: asymmetric_quantized
        qmethod: layer
        dtype: int8
        min:
        -   0.0
        max:
        -   653.3016357421875
        scale:
        -   2.5619671989889707
        zero_point:
        -   -128
        ori_min:
        -   0.0
        ori_max:
        -   653.3016357421875
    output0:
        qtype: asymmetric_quantized
        qmethod: layer
        dtype: float32
        min:
        -   0.0
        max:
        -   653.3016357421875
        scale: []
        zero_point: []
        ori_min:
        -   0.0
        ori_max:
        -   653.3016357421875
    /model.22/Constant_9_output_0:
        qtype: symmetric_quantized
        qmethod: layer
        dtype: int32
        min:
        -   -79.5
        max:
        -   79.5
        scale:
        -   3.702007234096527e-08
        zero_point:
        -   0
        ori_min:
        -   0.5
        ori_max:
        -   79.5
    /model.22/Constant_10_output_0:
        qtype: symmetric_quantized
        qmethod: layer
        dtype: int32
        min:
        -   -79.5
        max:
        -   79.5
        scale:
        -   3.702007234096527e-08
        zero_point:
        -   0
        ori_min:
        -   0.5
        ori_max:
        -   79.5
    /model.22/Constant_12_output_0:
        qtype: asymmetric_quantized
        qmethod: layer
        dtype: int16
        min:
        -   0.0
        max:
        -   32.0
        scale:
        -   0.0004882887006942855
        zero_point:
        -   -32768
        ori_min:
        -   8.0
        ori_max:
        -   32.0
    images_int8:
        qtype: asymmetric_quantized
        qmethod: layer
        dtype: int8
        min:
        -   0.0
        max:
        -   1.0
        scale:
        -   0.00392156862745098
        zero_point:
        -   -128
        ori_min:
        -   0.0
        ori_max:
        -   1.0
    output0_int8:
        qtype: asymmetric_quantized
        qmethod: layer
        dtype: int8
        min:
        -   0.0
        max:
        -   653.3016357421875
        scale:
        -   2.5619671989889707
        zero_point:
        -   -128
        ori_min:
        -   0.0
        ori_max:
        -   653.3016357421875
