custom_quantize_layers:
    /model.0/act/Mul_output_0: float16
    /model.1/conv/Conv_output_0: float16
    /model.1/act/Mul_output_0: float16
    /model.2/cv1/conv/Conv_output_0: float16
    /model.2/m.0/cv1/act/Mul_output_0: float16
    /model.2/m.0/cv2/conv/Conv_output_0: float16
    /model.2/m.0/cv2/act/Mul_output_0: float16
    /model.2/m.0/Add_output_0: float16
    /model.3/act/Mul_output_0: float16
    /model.4/cv1/conv/Conv_output_0: float16
    /model.6/m.1/cv2/act/Mul_output_0: float16
    /model.6/m.1/Add_output_0: float16
    /model.8/Split_output_0: float16
    /model.8/Concat_output_0: float16
    /model.8/m.0/cv2/act/Mul_output_0: float16
    /model.8/m.0/Add_output_0: float16
    /model.15/m.0/cv2/act/Mul_output_0: float16
    /model.15/Concat_output_0: float16
    /model.15/cv2/conv/Conv_output_0: float16
    /model.18/m.0/cv2/act/Mul_output_0: float16
    /model.18/Concat_output_0: float16
    /model.21/m.0/cv2/act/Mul_output_0: float16
    /model.21/Concat_output_0: float16
    /model.22/cv2.2/cv2.2.0/act/Mul_output_0: float16
    /model.22/cv2.2/cv2.2.1/conv/Conv_output_0: float16
    /model.22/cv2.2/cv2.2.1/act/Mul_output_0: float16
    /model.22/cv2.2/cv2.2.2/Conv_output_0: float16
    /model.22/cv3.2/cv3.2.0/act/Mul_output_0: float16
    /model.22/cv3.2/cv3.2.1/conv/Conv_output_0: float16
    /model.22/cv3.2/cv3.2.1/act/Mul_output_0: float16
    /model.22/cv3.2/cv3.2.2/Conv_output_0: float16
    /model.22/cv2.1/cv2.1.0/act/Mul_output_0: float16
    /model.22/cv2.1/cv2.1.1/conv/Conv_output_0: float16
    /model.22/cv2.1/cv2.1.1/act/Mul_output_0: float16
    /model.22/cv2.1/cv2.1.2/Conv_output_0: float16
    /model.22/cv3.1/cv3.1.1/act/Mul_output_0: float16
    /model.22/cv3.1/cv3.1.2/Conv_output_0: float16
    /model.22/cv2.0/cv2.0.1/act/Mul_output_0: float16
    /model.22/cv2.0/cv2.0.2/Conv_output_0: float16
    /model.22/cv3.0/cv3.0.1/act/Mul_output_0: float16
    /model.22/cv3.0/cv3.0.2/Conv_output_0: float16
    /model.22/dfl/Softmax_new: float16
    /model.22/dfl/conv/Conv_output_0: float16
    /model.22/Concat_4_output_0_shape4: float16
    /model.22/Mul_2_output_0_before: float16
    output0_shape4: float16
    /model.22/Sigmoid_output_0: float16
    /model.22/Concat_5_swap_concat_reshape_i1_out: float16
    output0_int8: float16
    output0: float16
quantize_parameters:
    images:
        qtype: asymmetric_quantized
        qmethod: layer
        dtype: float32
        min:
        -   0.0
        max:
        -   1.0
        scale: []
        zero_point: []
        ori_min:
        -   0.0
        ori_max:
        -   1.0
    /model.0/conv/Conv_output_0:
        qtype: asymmetric_quantized
        qmethod: layer
        dtype: int8
        min:
        -   -47.12969207763672
        max:
        -   52.72637176513672
        scale:
        -   0.3915924072265625
        zero_point:
        -   -8
        ori_min:
        -   -47.12969207763672
        ori_max:
        -   52.72637176513672
    /model.0/act/Mul_output_0:
        qtype: asymmetric_quantized
        qmethod: layer
        dtype: int8
        min:
        -   -0.27846458554267883
        max:
        -   52.72637176513672
        scale:
        -   0.20786210333599764
        zero_point:
        -   -127
        ori_min:
        -   -0.27846458554267883
        ori_max:
        -   52.72637176513672
    /model.1/conv/Conv_output_0:
        qtype: asymmetric_quantized
        qmethod: layer
        dtype: int8
        min:
        -   -111.29150390625
        max:
        -   120.47784423828125
        scale:
        -   0.9088994044883578
        zero_point:
        -   -6
        ori_min:
        -   -111.29150390625
        ori_max:
        -   120.47784423828125
    /model.1/act/Mul_output_0:
        qtype: asymmetric_quantized
        qmethod: layer
        dtype: int8
        min:
        -   -0.27846458554267883
        max:
        -   120.47784423828125
        scale:
        -   0.4735541522502899
        zero_point:
        -   -127
        ori_min:
        -   -0.27846458554267883
        ori_max:
        -   120.47784423828125
    /model.2/cv1/conv/Conv_output_0:
        qtype: asymmetric_quantized
        qmethod: layer
        dtype: int8
        min:
        -   -101.82696533203125
        max:
        -   33.882659912109375
        scale:
        -   0.5321946088005515
        zero_point:
        -   63
        ori_min:
        -   -101.82696533203125
        ori_max:
        -   33.882659912109375
    /model.2/cv1/act/Mul_output_0:
        qtype: asymmetric_quantized
        qmethod: layer
        dtype: int8
        min:
        -   -0.27846458554267883
        max:
        -   33.882659912109375
        scale:
        -   0.13396519410843943
        zero_point:
        -   -126
        ori_min:
        -   -0.27846458554267883
        ori_max:
        -   33.882659912109375
    /model.2/Split_output_0:
        qtype: asymmetric_quantized
        qmethod: layer
        dtype: int8
        min:
        -   -0.27846458554267883
        max:
        -   33.882659912109375
        scale:
        -   0.13396519410843943
        zero_point:
        -   -126
        ori_min:
        -   -0.27846458554267883
        ori_max:
        -   33.882659912109375
    /model.2/Split_output_1:
        qtype: asymmetric_quantized
        qmethod: layer
        dtype: int8
        min:
        -   -0.27846458554267883
        max:
        -   20.530424118041992
        scale:
        -   0.08160348511209675
        zero_point:
        -   -125
        ori_min:
        -   -0.27846458554267883
        ori_max:
        -   20.530424118041992
    /model.2/m.0/cv1/conv/Conv_output_0:
        qtype: asymmetric_quantized
        qmethod: layer
        dtype: int8
        min:
        -   -38.77823257446289
        max:
        -   31.495134353637695
        scale:
        -   0.27558183109059053
        zero_point:
        -   13
        ori_min:
        -   -38.77823257446289
        ori_max:
        -   31.495134353637695
    /model.2/m.0/cv1/act/Mul_output_0:
        qtype: asymmetric_quantized
        qmethod: layer
        dtype: int8
        min:
        -   -0.27846458554267883
        max:
        -   31.495134353637695
        scale:
        -   0.1246023487810995
        zero_point:
        -   -126
        ori_min:
        -   -0.27846458554267883
        ori_max:
        -   31.495134353637695
    /model.2/m.0/cv2/conv/Conv_output_0:
        qtype: asymmetric_quantized
        qmethod: layer
        dtype: int8
        min:
        -   -40.18052673339844
        max:
        -   35.4986686706543
        scale:
        -   0.2967811584472656
        zero_point:
        -   7
        ori_min:
        -   -40.18052673339844
        ori_max:
        -   35.4986686706543
    /model.2/m.0/cv2/act/Mul_output_0:
        qtype: asymmetric_quantized
        qmethod: layer
        dtype: int8
        min:
        -   -0.27846458554267883
        max:
        -   35.4986686706543
        scale:
        -   0.1403024833576352
        zero_point:
        -   -126
        ori_min:
        -   -0.27846458554267883
        ori_max:
        -   35.4986686706543
    /model.2/m.0/Add_output_0:
        qtype: asymmetric_quantized
        qmethod: layer
        dtype: int8
        min:
        -   -0.5569291114807129
        max:
        -   40.592613220214844
        scale:
        -   0.16137075424194336
        zero_point:
        -   -125
        ori_min:
        -   -0.5569291114807129
        ori_max:
        -   40.592613220214844
    /model.2/Concat_output_0:
        qtype: asymmetric_quantized
        qmethod: layer
        dtype: int8
        min:
        -   -0.5569291114807129
        max:
        -   40.592613220214844
        scale:
        -   0.16137075424194336
        zero_point:
        -   -125
        ori_min:
        -   -0.5569291114807129
        ori_max:
        -   40.592613220214844
    /model.2/cv2/conv/Conv_output_0:
        qtype: asymmetric_quantized
        qmethod: layer
        dtype: int8
        min:
        -   -23.881027221679688
        max:
        -   11.826377868652344
        scale:
        -   0.14002903956992954
        zero_point:
        -   43
        ori_min:
        -   -23.881027221679688
        ori_max:
        -   11.826377868652344
    /model.2/cv2/act/Mul_output_0:
        qtype: asymmetric_quantized
        qmethod: layer
        dtype: int8
        min:
        -   -0.27846458554267883
        max:
        -   11.826292037963867
        scale:
        -   0.04746963381767273
        zero_point:
        -   -122
        ori_min:
        -   -0.27846458554267883
        ori_max:
        -   11.826292037963867
    /model.3/conv/Conv_output_0:
        qtype: asymmetric_quantized
        qmethod: layer
        dtype: int8
        min:
        -   -10.879640579223633
        max:
        -   7.251333236694336
        scale:
        -   0.07110185810163909
        zero_point:
        -   25
        ori_min:
        -   -10.879640579223633
        ori_max:
        -   7.251333236694336
    /model.3/act/Mul_output_0:
        qtype: asymmetric_quantized
        qmethod: layer
        dtype: int8
        min:
        -   -0.27846458554267883
        max:
        -   7.246194362640381
        scale:
        -   0.02950846646346298
        zero_point:
        -   -119
        ori_min:
        -   -0.27846458554267883
        ori_max:
        -   7.246194362640381
    /model.4/cv1/conv/Conv_output_0:
        qtype: asymmetric_quantized
        qmethod: layer
        dtype: int8
        min:
        -   -13.208215713500977
        max:
        -   7.293859481811523
        scale:
        -   0.08040029488357843
        zero_point:
        -   36
        ori_min:
        -   -13.208215713500977
        ori_max:
        -   7.293859481811523
    /model.4/cv1/act/Mul_output_0:
        qtype: asymmetric_quantized
        qmethod: layer
        dtype: int8
        min:
        -   -0.27846458554267883
        max:
        -   7.288905143737793
        scale:
        -   0.029675959722668517
        zero_point:
        -   -119
        ori_min:
        -   -0.27846458554267883
        ori_max:
        -   7.288905143737793
    /model.4/Split_output_0:
        qtype: asymmetric_quantized
        qmethod: layer
        dtype: int8
        min:
        -   -0.27846458554267883
        max:
        -   7.288905143737793
        scale:
        -   0.029675959722668517
        zero_point:
        -   -119
        ori_min:
        -   -0.27846458554267883
        ori_max:
        -   7.288905143737793
    /model.4/Split_output_1:
        qtype: asymmetric_quantized
        qmethod: layer
        dtype: int8
        min:
        -   -0.27846455574035645
        max:
        -   4.205956935882568
        scale:
        -   0.01758596663381539
        zero_point:
        -   -112
        ori_min:
        -   -0.27846455574035645
        ori_max:
        -   4.205956935882568
    /model.4/m.0/cv1/conv/Conv_output_0:
        qtype: asymmetric_quantized
        qmethod: layer
        dtype: int8
        min:
        -   -6.915494441986084
        max:
        -   5.361749649047852
        scale:
        -   0.04814605525895661
        zero_point:
        -   16
        ori_min:
        -   -6.915494441986084
        ori_max:
        -   5.361749649047852
    /model.4/m.0/cv1/act/Mul_output_0:
        qtype: asymmetric_quantized
        qmethod: layer
        dtype: int8
        min:
        -   -0.27846458554267883
        max:
        -   5.336706161499023
        scale:
        -   0.022020277439379225
        zero_point:
        -   -115
        ori_min:
        -   -0.27846458554267883
        ori_max:
        -   5.336706161499023
    /model.4/m.0/cv2/conv/Conv_output_0:
        qtype: asymmetric_quantized
        qmethod: layer
        dtype: int8
        min:
        -   -7.974592208862305
        max:
        -   5.964367389678955
        scale:
        -   0.054662586660946116
        zero_point:
        -   18
        ori_min:
        -   -7.974592208862305
        ori_max:
        -   5.964367389678955
    /model.4/m.0/cv2/act/Mul_output_0:
        qtype: asymmetric_quantized
        qmethod: layer
        dtype: int8
        min:
        -   -0.27846458554267883
        max:
        -   5.949085712432861
        scale:
        -   0.024421765874413883
        zero_point:
        -   -117
        ori_min:
        -   -0.27846458554267883
        ori_max:
        -   5.949085712432861
    /model.4/m.0/Add_output_0:
        qtype: asymmetric_quantized
        qmethod: layer
        dtype: int8
        min:
        -   -0.5569289922714233
        max:
        -   7.687185287475586
        scale:
        -   0.032329859920576506
        zero_point:
        -   -111
        ori_min:
        -   -0.5569289922714233
        ori_max:
        -   7.687185287475586
    /model.4/m.1/cv1/conv/Conv_output_0:
        qtype: asymmetric_quantized
        qmethod: layer
        dtype: int8
        min:
        -   -9.142312049865723
        max:
        -   5.370852470397949
        scale:
        -   0.05691437066770067
        zero_point:
        -   33
        ori_min:
        -   -9.142312049865723
        ori_max:
        -   5.370852470397949
    /model.4/m.1/cv1/act/Mul_output_0:
        qtype: asymmetric_quantized
        qmethod: layer
        dtype: int8
        min:
        -   -0.27846458554267883
        max:
        -   5.3459930419921875
        scale:
        -   0.022056696578568104
        zero_point:
        -   -115
        ori_min:
        -   -0.27846458554267883
        ori_max:
        -   5.3459930419921875
    /model.4/m.1/cv2/conv/Conv_output_0:
        qtype: asymmetric_quantized
        qmethod: layer
        dtype: int8
        min:
        -   -14.117348670959473
        max:
        -   10.077678680419922
        scale:
        -   0.09488246020148783
        zero_point:
        -   21
        ori_min:
        -   -14.117348670959473
        ori_max:
        -   10.077678680419922
    /model.4/m.1/cv2/act/Mul_output_0:
        qtype: asymmetric_quantized
        qmethod: layer
        dtype: int8
        min:
        -   -0.27846458554267883
        max:
        -   10.077256202697754
        scale:
        -   0.04061066975780562
        zero_point:
        -   -121
        ori_min:
        -   -0.27846458554267883
        ori_max:
        -   10.077256202697754
    /model.4/m.1/Add_output_0:
        qtype: asymmetric_quantized
        qmethod: layer
        dtype: int8
        min:
        -   -0.8353171944618225
        max:
        -   11.547014236450195
        scale:
        -   0.04855816247416478
        zero_point:
        -   -111
        ori_min:
        -   -0.8353171944618225
        ori_max:
        -   11.547014236450195
    /model.4/Concat_output_0:
        qtype: asymmetric_quantized
        qmethod: layer
        dtype: int8
        min:
        -   -0.8353171944618225
        max:
        -   11.547014236450195
        scale:
        -   0.04855816247416478
        zero_point:
        -   -111
        ori_min:
        -   -0.8353171944618225
        ori_max:
        -   11.547014236450195
    /model.4/cv2/conv/Conv_output_0:
        qtype: asymmetric_quantized
        qmethod: layer
        dtype: int8
        min:
        -   -10.15849781036377
        max:
        -   10.407011032104492
        scale:
        -   0.08064905428418927
        zero_point:
        -   -2
        ori_min:
        -   -10.15849781036377
        ori_max:
        -   10.407011032104492
    /model.4/cv2/act/Mul_output_0:
        qtype: asymmetric_quantized
        qmethod: layer
        dtype: int8
        min:
        -   -0.27846458554267883
        max:
        -   10.406696319580078
        scale:
        -   0.04190259178479513
        zero_point:
        -   -121
        ori_min:
        -   -0.27846458554267883
        ori_max:
        -   10.406696319580078
    /model.5/conv/Conv_output_0:
        qtype: asymmetric_quantized
        qmethod: layer
        dtype: int8
        min:
        -   -14.592880249023438
        max:
        -   8.221346855163574
        scale:
        -   0.08946755727132162
        zero_point:
        -   35
        ori_min:
        -   -14.592880249023438
        ori_max:
        -   8.221346855163574
    /model.5/act/Mul_output_0:
        qtype: asymmetric_quantized
        qmethod: layer
        dtype: int8
        min:
        -   -0.27846458554267883
        max:
        -   8.219137191772461
        scale:
        -   0.03332392853849074
        zero_point:
        -   -120
        ori_min:
        -   -0.27846458554267883
        ori_max:
        -   8.219137191772461
    /model.6/cv1/conv/Conv_output_0:
        qtype: asymmetric_quantized
        qmethod: layer
        dtype: int8
        min:
        -   -11.395535469055176
        max:
        -   8.33823299407959
        scale:
        -   0.07738732730641085
        zero_point:
        -   19
        ori_min:
        -   -11.395535469055176
        ori_max:
        -   8.33823299407959
    /model.6/cv1/act/Mul_output_0:
        qtype: asymmetric_quantized
        qmethod: layer
        dtype: int8
        min:
        -   -0.27846458554267883
        max:
        -   8.336238861083984
        scale:
        -   0.03378315077108495
        zero_point:
        -   -120
        ori_min:
        -   -0.27846458554267883
        ori_max:
        -   8.336238861083984
    /model.6/Split_output_0:
        qtype: asymmetric_quantized
        qmethod: layer
        dtype: int8
        min:
        -   -0.27846458554267883
        max:
        -   8.336238861083984
        scale:
        -   0.03378315077108495
        zero_point:
        -   -120
        ori_min:
        -   -0.27846458554267883
        ori_max:
        -   8.336238861083984
    /model.6/Split_output_1:
        qtype: asymmetric_quantized
        qmethod: layer
        dtype: int8
        min:
        -   -0.27846458554267883
        max:
        -   5.682064533233643
        scale:
        -   0.02337462399520126
        zero_point:
        -   -116
        ori_min:
        -   -0.27846458554267883
        ori_max:
        -   5.682064533233643
    /model.6/m.0/cv1/conv/Conv_output_0:
        qtype: asymmetric_quantized
        qmethod: layer
        dtype: int8
        min:
        -   -9.678157806396484
        max:
        -   7.405002593994141
        scale:
        -   0.0669927858838848
        zero_point:
        -   16
        ori_min:
        -   -9.678157806396484
        ori_max:
        -   7.405002593994141
    /model.6/m.0/cv1/act/Mul_output_0:
        qtype: asymmetric_quantized
        qmethod: layer
        dtype: int8
        min:
        -   -0.27846458554267883
        max:
        -   7.400501251220703
        scale:
        -   0.030113591516719145
        zero_point:
        -   -119
        ori_min:
        -   -0.27846458554267883
        ori_max:
        -   7.400501251220703
    /model.6/m.0/cv2/conv/Conv_output_0:
        qtype: asymmetric_quantized
        qmethod: layer
        dtype: int8
        min:
        -   -8.053656578063965
        max:
        -   5.87755012512207
        scale:
        -   0.05463218314974916
        zero_point:
        -   19
        ori_min:
        -   -8.053656578063965
        ori_max:
        -   5.87755012512207
    /model.6/m.0/cv2/act/Mul_output_0:
        qtype: asymmetric_quantized
        qmethod: layer
        dtype: int8
        min:
        -   -0.27846455574035645
        max:
        -   5.861129283905029
        scale:
        -   0.02407683858684465
        zero_point:
        -   -116
        ori_min:
        -   -0.27846455574035645
        ori_max:
        -   5.861129283905029
    /model.6/m.0/Add_output_0:
        qtype: asymmetric_quantized
        qmethod: layer
        dtype: int8
        min:
        -   -0.5569289922714233
        max:
        -   7.509064674377441
        scale:
        -   0.03163134771234849
        zero_point:
        -   -110
        ori_min:
        -   -0.5569289922714233
        ori_max:
        -   7.509064674377441
    /model.6/m.1/cv1/conv/Conv_output_0:
        qtype: asymmetric_quantized
        qmethod: layer
        dtype: int8
        min:
        -   -8.890856742858887
        max:
        -   9.345086097717285
        scale:
        -   0.07151350133559282
        zero_point:
        -   -4
        ori_min:
        -   -8.890856742858887
        ori_max:
        -   9.345086097717285
    /model.6/m.1/cv1/act/Mul_output_0:
        qtype: asymmetric_quantized
        qmethod: layer
        dtype: int8
        min:
        -   -0.27846458554267883
        max:
        -   9.344269752502441
        scale:
        -   0.03773621309037302
        zero_point:
        -   -121
        ori_min:
        -   -0.27846458554267883
        ori_max:
        -   9.344269752502441
    /model.6/m.1/cv2/conv/Conv_output_0:
        qtype: asymmetric_quantized
        qmethod: layer
        dtype: int8
        min:
        -   -14.938163757324219
        max:
        -   17.659875869750977
        scale:
        -   0.12783544951794193
        zero_point:
        -   -11
        ori_min:
        -   -14.938163757324219
        ori_max:
        -   17.659875869750977
    /model.6/m.1/cv2/act/Mul_output_0:
        qtype: asymmetric_quantized
        qmethod: layer
        dtype: int8
        min:
        -   -0.27846458554267883
        max:
        -   17.659875869750977
        scale:
        -   0.07034643315801434
        zero_point:
        -   -124
        ori_min:
        -   -0.27846458554267883
        ori_max:
        -   17.659875869750977
    /model.6/m.1/Add_output_0:
        qtype: asymmetric_quantized
        qmethod: layer
        dtype: int8
        min:
        -   -0.8353862166404724
        max:
        -   17.317514419555664
        scale:
        -   0.07118784563214171
        zero_point:
        -   -116
        ori_min:
        -   -0.8353862166404724
        ori_max:
        -   17.317514419555664
    /model.6/Concat_output_0:
        qtype: asymmetric_quantized
        qmethod: layer
        dtype: int8
        min:
        -   -0.8353862166404724
        max:
        -   17.317514419555664
        scale:
        -   0.07118784563214171
        zero_point:
        -   -116
        ori_min:
        -   -0.8353862166404724
        ori_max:
        -   17.317514419555664
    /model.6/cv2/conv/Conv_output_0:
        qtype: asymmetric_quantized
        qmethod: layer
        dtype: int8
        min:
        -   -9.286885261535645
        max:
        -   10.405237197875977
        scale:
        -   0.07722400964475146
        zero_point:
        -   -8
        ori_min:
        -   -9.286885261535645
        ori_max:
        -   10.405237197875977
    /model.6/cv2/act/Mul_output_0:
        qtype: asymmetric_quantized
        qmethod: layer
        dtype: int8
        min:
        -   -0.27846458554267883
        max:
        -   10.404922485351562
        scale:
        -   0.04189563557213428
        zero_point:
        -   -121
        ori_min:
        -   -0.27846458554267883
        ori_max:
        -   10.404922485351562
    /model.7/conv/Conv_output_0:
        qtype: asymmetric_quantized
        qmethod: layer
        dtype: int8
        min:
        -   -10.103694915771484
        max:
        -   7.739437103271484
        scale:
        -   0.06997306674134497
        zero_point:
        -   16
        ori_min:
        -   -10.103694915771484
        ori_max:
        -   7.739437103271484
    /model.7/act/Mul_output_0:
        qtype: asymmetric_quantized
        qmethod: layer
        dtype: int8
        min:
        -   -0.27846458554267883
        max:
        -   7.736069202423096
        scale:
        -   0.03142954426653245
        zero_point:
        -   -119
        ori_min:
        -   -0.27846458554267883
        ori_max:
        -   7.736069202423096
    /model.8/cv1/conv/Conv_output_0:
        qtype: asymmetric_quantized
        qmethod: layer
        dtype: int8
        min:
        -   -14.153550148010254
        max:
        -   11.80793285369873
        scale:
        -   0.10180973726160386
        zero_point:
        -   11
        ori_min:
        -   -14.153550148010254
        ori_max:
        -   11.80793285369873
    /model.8/cv1/act/Mul_output_0:
        qtype: asymmetric_quantized
        qmethod: layer
        dtype: int8
        min:
        -   -0.27846458554267883
        max:
        -   11.807845115661621
        scale:
        -   0.047397292945899214
        zero_point:
        -   -122
        ori_min:
        -   -0.27846458554267883
        ori_max:
        -   11.807845115661621
    /model.8/Split_output_0:
        qtype: asymmetric_quantized
        qmethod: layer
        dtype: int8
        min:
        -   -0.27846455574035645
        max:
        -   11.807845115661621
        scale:
        -   0.04739729282902736
        zero_point:
        -   -122
        ori_min:
        -   -0.27846455574035645
        ori_max:
        -   11.807845115661621
    /model.8/Split_output_1:
        qtype: asymmetric_quantized
        qmethod: layer
        dtype: int8
        min:
        -   -0.27846458554267883
        max:
        -   10.095459938049316
        scale:
        -   0.040682056955262724
        zero_point:
        -   -121
        ori_min:
        -   -0.27846458554267883
        ori_max:
        -   10.095459938049316
    /model.8/m.0/cv1/conv/Conv_output_0:
        qtype: asymmetric_quantized
        qmethod: layer
        dtype: int8
        min:
        -   -11.207212448120117
        max:
        -   12.740062713623047
        scale:
        -   0.09391088298722809
        zero_point:
        -   -9
        ori_min:
        -   -11.207212448120117
        ori_max:
        -   12.740062713623047
    /model.8/m.0/cv1/act/Mul_output_0:
        qtype: asymmetric_quantized
        qmethod: layer
        dtype: int8
        min:
        -   -0.27846458554267883
        max:
        -   12.74002456665039
        scale:
        -   0.05105289863605125
        zero_point:
        -   -123
        ori_min:
        -   -0.27846458554267883
        ori_max:
        -   12.74002456665039
    /model.8/m.0/cv2/conv/Conv_output_0:
        qtype: asymmetric_quantized
        qmethod: layer
        dtype: int8
        min:
        -   -14.939529418945312
        max:
        -   15.678382873535156
        scale:
        -   0.12007024428423713
        zero_point:
        -   -4
        ori_min:
        -   -14.939529418945312
        ori_max:
        -   15.678382873535156
    /model.8/m.0/cv2/act/Mul_output_0:
        qtype: asymmetric_quantized
        qmethod: layer
        dtype: int8
        min:
        -   -0.27846455574035645
        max:
        -   15.678380966186523
        scale:
        -   0.06257586479187012
        zero_point:
        -   -124
        ori_min:
        -   -0.27846455574035645
        ori_max:
        -   15.678380966186523
    /model.8/m.0/Add_output_0:
        qtype: asymmetric_quantized
        qmethod: layer
        dtype: int8
        min:
        -   -0.5569289922714233
        max:
        -   15.410837173461914
        scale:
        -   0.06261869084601308
        zero_point:
        -   -119
        ori_min:
        -   -0.5569289922714233
        ori_max:
        -   15.410837173461914
    /model.8/Concat_output_0:
        qtype: asymmetric_quantized
        qmethod: layer
        dtype: int8
        min:
        -   -0.5569289922714233
        max:
        -   15.410837173461914
        scale:
        -   0.06261869084601308
        zero_point:
        -   -119
        ori_min:
        -   -0.5569289922714233
        ori_max:
        -   15.410837173461914
    /model.8/cv2/conv/Conv_output_0:
        qtype: asymmetric_quantized
        qmethod: layer
        dtype: int8
        min:
        -   -11.276308059692383
        max:
        -   9.426835060119629
        scale:
        -   0.0811887965482824
        zero_point:
        -   11
        ori_min:
        -   -11.276308059692383
        ori_max:
        -   9.426835060119629
    /model.8/cv2/act/Mul_output_0:
        qtype: asymmetric_quantized
        qmethod: layer
        dtype: int8
        min:
        -   -0.27846458554267883
        max:
        -   9.426074981689453
        scale:
        -   0.038057017910714246
        zero_point:
        -   -121
        ori_min:
        -   -0.27846458554267883
        ori_max:
        -   9.426074981689453
    /model.9/cv1/conv/Conv_output_0:
        qtype: asymmetric_quantized
        qmethod: layer
        dtype: int8
        min:
        -   -6.317276954650879
        max:
        -   8.617892265319824
        scale:
        -   0.05856929105870864
        zero_point:
        -   -20
        ori_min:
        -   -6.317276954650879
        ori_max:
        -   8.617892265319824
    /model.9/cv1/act/Mul_output_0:
        qtype: asymmetric_quantized
        qmethod: layer
        dtype: int8
        min:
        -   -0.27846455574035645
        max:
        -   8.616333961486816
        scale:
        -   0.03488156281265558
        zero_point:
        -   -120
        ori_min:
        -   -0.27846455574035645
        ori_max:
        -   8.616333961486816
    /model.9/m/MaxPool_output_0:
        qtype: asymmetric_quantized
        qmethod: layer
        dtype: int8
        min:
        -   -0.27846455574035645
        max:
        -   8.616333961486816
        scale:
        -   0.03488156281265558
        zero_point:
        -   -120
        ori_min:
        -   -0.27330106496810913
        ori_max:
        -   8.616333961486816
    /model.9/m_1/MaxPool_output_0:
        qtype: asymmetric_quantized
        qmethod: layer
        dtype: int8
        min:
        -   -0.27846455574035645
        max:
        -   8.616333961486816
        scale:
        -   0.03488156281265558
        zero_point:
        -   -120
        ori_min:
        -   -0.2652397155761719
        ori_max:
        -   8.616333961486816
    /model.9/m_2/MaxPool_output_0:
        qtype: asymmetric_quantized
        qmethod: layer
        dtype: int8
        min:
        -   -0.27846455574035645
        max:
        -   8.616333961486816
        scale:
        -   0.03488156281265558
        zero_point:
        -   -120
        ori_min:
        -   -0.2561000883579254
        ori_max:
        -   8.616333961486816
    /model.9/Concat_output_0:
        qtype: asymmetric_quantized
        qmethod: layer
        dtype: int8
        min:
        -   -0.27846455574035645
        max:
        -   8.616333961486816
        scale:
        -   0.03488156281265558
        zero_point:
        -   -120
        ori_min:
        -   -0.27846455574035645
        ori_max:
        -   8.616333961486816
    /model.9/cv2/conv/Conv_output_0:
        qtype: asymmetric_quantized
        qmethod: layer
        dtype: int8
        min:
        -   -9.019684791564941
        max:
        -   11.306707382202148
        scale:
        -   0.07971134185791015
        zero_point:
        -   -15
        ori_min:
        -   -9.019684791564941
        ori_max:
        -   11.306707382202148
    /model.9/cv2/act/Mul_output_0:
        qtype: asymmetric_quantized
        qmethod: layer
        dtype: int8
        min:
        -   -0.27846458554267883
        max:
        -   11.306568145751953
        scale:
        -   0.04543150090703777
        zero_point:
        -   -122
        ori_min:
        -   -0.27846458554267883
        ori_max:
        -   11.306568145751953
    /model.10/Resize_output_0:
        qtype: asymmetric_quantized
        qmethod: layer
        dtype: int8
        min:
        -   -0.27846458554267883
        max:
        -   11.306568145751953
        scale:
        -   0.04543150090703777
        zero_point:
        -   -122
        ori_min:
        -   -0.27846458554267883
        ori_max:
        -   11.306568145751953
    /model.11/Concat_output_0:
        qtype: asymmetric_quantized
        qmethod: layer
        dtype: int8
        min:
        -   -0.27846458554267883
        max:
        -   11.306568145751953
        scale:
        -   0.04543150090703777
        zero_point:
        -   -122
        ori_min:
        -   -0.27846458554267883
        ori_max:
        -   11.306568145751953
    /model.12/cv1/conv/Conv_output_0:
        qtype: asymmetric_quantized
        qmethod: layer
        dtype: int8
        min:
        -   -10.34304141998291
        max:
        -   11.051817893981934
        scale:
        -   0.08390140907437194
        zero_point:
        -   -5
        ori_min:
        -   -10.34304141998291
        ori_max:
        -   11.051817893981934
    /model.12/cv1/act/Mul_output_0:
        qtype: asymmetric_quantized
        qmethod: layer
        dtype: int8
        min:
        -   -0.27846458554267883
        max:
        -   11.051642417907715
        scale:
        -   0.044431792170393704
        zero_point:
        -   -122
        ori_min:
        -   -0.27846458554267883
        ori_max:
        -   11.051642417907715
    /model.12/Split_output_0:
        qtype: asymmetric_quantized
        qmethod: layer
        dtype: int8
        min:
        -   -0.27846458554267883
        max:
        -   11.051642417907715
        scale:
        -   0.044431792170393704
        zero_point:
        -   -122
        ori_min:
        -   -0.27846458554267883
        ori_max:
        -   11.051642417907715
    /model.12/Split_output_1:
        qtype: asymmetric_quantized
        qmethod: layer
        dtype: int8
        min:
        -   -0.27846458554267883
        max:
        -   7.068947792053223
        scale:
        -   0.028813381872925103
        zero_point:
        -   -118
        ori_min:
        -   -0.27846458554267883
        ori_max:
        -   7.068947792053223
    /model.12/m.0/cv1/conv/Conv_output_0:
        qtype: asymmetric_quantized
        qmethod: layer
        dtype: int8
        min:
        -   -12.257843971252441
        max:
        -   7.115725994110107
        scale:
        -   0.07597478417789234
        zero_point:
        -   33
        ori_min:
        -   -12.257843971252441
        ori_max:
        -   7.115725994110107
    /model.12/m.0/cv1/act/Mul_output_0:
        qtype: asymmetric_quantized
        qmethod: layer
        dtype: int8
        min:
        -   -0.27846458554267883
        max:
        -   7.109951496124268
        scale:
        -   0.028974180712419396
        zero_point:
        -   -118
        ori_min:
        -   -0.27846458554267883
        ori_max:
        -   7.109951496124268
    /model.12/m.0/cv2/conv/Conv_output_0:
        qtype: asymmetric_quantized
        qmethod: layer
        dtype: int8
        min:
        -   -10.64312744140625
        max:
        -   9.351205825805664
        scale:
        -   0.0784091500674977
        zero_point:
        -   8
        ori_min:
        -   -10.64312744140625
        ori_max:
        -   9.351205825805664
    /model.12/m.0/cv2/act/Mul_output_0:
        qtype: asymmetric_quantized
        qmethod: layer
        dtype: int8
        min:
        -   -0.27846458554267883
        max:
        -   9.350393295288086
        scale:
        -   0.03776022698365006
        zero_point:
        -   -121
        ori_min:
        -   -0.27846458554267883
        ori_max:
        -   9.350393295288086
    /model.12/Concat_output_0:
        qtype: asymmetric_quantized
        qmethod: layer
        dtype: int8
        min:
        -   -0.27846458554267883
        max:
        -   11.051642417907715
        scale:
        -   0.044431792170393704
        zero_point:
        -   -122
        ori_min:
        -   -0.27846458554267883
        ori_max:
        -   11.051642417907715
    /model.12/cv2/conv/Conv_output_0:
        qtype: asymmetric_quantized
        qmethod: layer
        dtype: int8
        min:
        -   -13.246192932128906
        max:
        -   9.028562545776367
        scale:
        -   0.08735198226629519
        zero_point:
        -   24
        ori_min:
        -   -13.246192932128906
        ori_max:
        -   9.028562545776367
    /model.12/cv2/act/Mul_output_0:
        qtype: asymmetric_quantized
        qmethod: layer
        dtype: int8
        min:
        -   -0.27846458554267883
        max:
        -   9.027480125427246
        scale:
        -   0.03649390082733304
        zero_point:
        -   -120
        ori_min:
        -   -0.27846458554267883
        ori_max:
        -   9.027480125427246
    /model.13/Resize_output_0:
        qtype: asymmetric_quantized
        qmethod: layer
        dtype: int8
        min:
        -   -0.27846458554267883
        max:
        -   9.027480125427246
        scale:
        -   0.03649390082733304
        zero_point:
        -   -120
        ori_min:
        -   -0.27846458554267883
        ori_max:
        -   9.027480125427246
    /model.14/Concat_output_0:
        qtype: asymmetric_quantized
        qmethod: layer
        dtype: int8
        min:
        -   -0.27846458554267883
        max:
        -   10.406696319580078
        scale:
        -   0.04190259178479513
        zero_point:
        -   -121
        ori_min:
        -   -0.27846458554267883
        ori_max:
        -   10.406696319580078
    /model.15/cv1/conv/Conv_output_0:
        qtype: asymmetric_quantized
        qmethod: layer
        dtype: int8
        min:
        -   -9.883499145507812
        max:
        -   6.145626068115234
        scale:
        -   0.06285931456322763
        zero_point:
        -   29
        ori_min:
        -   -9.883499145507812
        ori_max:
        -   6.145626068115234
    /model.15/cv1/act/Mul_output_0:
        qtype: asymmetric_quantized
        qmethod: layer
        dtype: int8
        min:
        -   -0.27846458554267883
        max:
        -   6.132485389709473
        scale:
        -   0.025140980295106478
        zero_point:
        -   -117
        ori_min:
        -   -0.27846458554267883
        ori_max:
        -   6.132485389709473
    /model.15/Split_output_0:
        qtype: asymmetric_quantized
        qmethod: layer
        dtype: int8
        min:
        -   -0.27846458554267883
        max:
        -   5.791715621948242
        scale:
        -   0.02380462826467028
        zero_point:
        -   -116
        ori_min:
        -   -0.27846458554267883
        ori_max:
        -   5.791715621948242
    /model.15/Split_output_1:
        qtype: asymmetric_quantized
        qmethod: layer
        dtype: int8
        min:
        -   -0.27846458554267883
        max:
        -   6.132485389709473
        scale:
        -   0.025140980295106478
        zero_point:
        -   -117
        ori_min:
        -   -0.27846458554267883
        ori_max:
        -   6.132485389709473
    /model.15/m.0/cv1/conv/Conv_output_0:
        qtype: asymmetric_quantized
        qmethod: layer
        dtype: int8
        min:
        -   -6.315619945526123
        max:
        -   5.235247611999512
        scale:
        -   0.045297519833433865
        zero_point:
        -   11
        ori_min:
        -   -6.315619945526123
        ori_max:
        -   5.235247611999512
    /model.15/m.0/cv1/act/Mul_output_0:
        qtype: asymmetric_quantized
        qmethod: layer
        dtype: int8
        min:
        -   -0.27846458554267883
        max:
        -   5.207514762878418
        scale:
        -   0.021513644503612143
        zero_point:
        -   -115
        ori_min:
        -   -0.27846458554267883
        ori_max:
        -   5.207514762878418
    /model.15/m.0/cv2/conv/Conv_output_0:
        qtype: asymmetric_quantized
        qmethod: layer
        dtype: int8
        min:
        -   -8.862043380737305
        max:
        -   8.363258361816406
        scale:
        -   0.06755020291197533
        zero_point:
        -   3
        ori_min:
        -   -8.862043380737305
        ori_max:
        -   8.363258361816406
    /model.15/m.0/cv2/act/Mul_output_0:
        qtype: asymmetric_quantized
        qmethod: layer
        dtype: int8
        min:
        -   -0.27846458554267883
        max:
        -   8.361308097839355
        scale:
        -   0.03388146150345896
        zero_point:
        -   -120
        ori_min:
        -   -0.27846458554267883
        ori_max:
        -   8.361308097839355
    /model.15/Concat_output_0:
        qtype: asymmetric_quantized
        qmethod: layer
        dtype: int8
        min:
        -   -0.27846458554267883
        max:
        -   8.361308097839355
        scale:
        -   0.03388146150345896
        zero_point:
        -   -120
        ori_min:
        -   -0.27846458554267883
        ori_max:
        -   8.361308097839355
    /model.15/cv2/conv/Conv_output_0:
        qtype: asymmetric_quantized
        qmethod: layer
        dtype: int8
        min:
        -   -13.192475318908691
        max:
        -   6.7737884521484375
        scale:
        -   0.07829907361198873
        zero_point:
        -   40
        ori_min:
        -   -13.192475318908691
        ori_max:
        -   6.7737884521484375
    /model.15/cv2/act/Mul_output_0:
        qtype: asymmetric_quantized
        qmethod: layer
        dtype: int8
        min:
        -   -0.27846458554267883
        max:
        -   6.766052722930908
        scale:
        -   0.02762555807244544
        zero_point:
        -   -118
        ori_min:
        -   -0.27846458554267883
        ori_max:
        -   6.766052722930908
    /model.16/conv/Conv_output_0:
        qtype: asymmetric_quantized
        qmethod: layer
        dtype: int8
        min:
        -   -9.01418685913086
        max:
        -   8.929692268371582
        scale:
        -   0.07036815344118605
        zero_point:
        -   0
        ori_min:
        -   -9.01418685913086
        ori_max:
        -   8.929692268371582
    /model.16/act/Mul_output_0:
        qtype: asymmetric_quantized
        qmethod: layer
        dtype: int8
        min:
        -   -0.27846458554267883
        max:
        -   8.928509712219238
        scale:
        -   0.036105781559850655
        zero_point:
        -   -120
        ori_min:
        -   -0.27846458554267883
        ori_max:
        -   8.928509712219238
    /model.17/Concat_output_0:
        qtype: asymmetric_quantized
        qmethod: layer
        dtype: int8
        min:
        -   -0.27846458554267883
        max:
        -   9.027480125427246
        scale:
        -   0.03649390082733304
        zero_point:
        -   -120
        ori_min:
        -   -0.27846458554267883
        ori_max:
        -   9.027480125427246
    /model.18/cv1/conv/Conv_output_0:
        qtype: asymmetric_quantized
        qmethod: layer
        dtype: int8
        min:
        -   -11.006047248840332
        max:
        -   8.17628002166748
        scale:
        -   0.07522481282552083
        zero_point:
        -   18
        ori_min:
        -   -11.006047248840332
        ori_max:
        -   8.17628002166748
    /model.18/cv1/act/Mul_output_0:
        qtype: asymmetric_quantized
        qmethod: layer
        dtype: int8
        min:
        -   -0.27846458554267883
        max:
        -   8.173981666564941
        scale:
        -   0.033146848047480866
        zero_point:
        -   -120
        ori_min:
        -   -0.27846458554267883
        ori_max:
        -   8.173981666564941
    /model.18/Split_output_0:
        qtype: asymmetric_quantized
        qmethod: layer
        dtype: int8
        min:
        -   -0.27846458554267883
        max:
        -   8.173981666564941
        scale:
        -   0.033146848047480866
        zero_point:
        -   -120
        ori_min:
        -   -0.27846458554267883
        ori_max:
        -   8.173981666564941
    /model.18/Split_output_1:
        qtype: asymmetric_quantized
        qmethod: layer
        dtype: int8
        min:
        -   -0.27846458554267883
        max:
        -   7.120759010314941
        scale:
        -   0.029016563121010277
        zero_point:
        -   -118
        ori_min:
        -   -0.27846458554267883
        ori_max:
        -   7.120759010314941
    /model.18/m.0/cv1/conv/Conv_output_0:
        qtype: asymmetric_quantized
        qmethod: layer
        dtype: int8
        min:
        -   -8.05282974243164
        max:
        -   4.923739433288574
        scale:
        -   0.05088850657145182
        zero_point:
        -   30
        ori_min:
        -   -8.05282974243164
        ori_max:
        -   4.923739433288574
    /model.18/m.0/cv1/act/Mul_output_0:
        qtype: asymmetric_quantized
        qmethod: layer
        dtype: int8
        min:
        -   -0.27846458554267883
        max:
        -   4.888193130493164
        scale:
        -   0.0202614028079837
        zero_point:
        -   -114
        ori_min:
        -   -0.27846458554267883
        ori_max:
        -   4.888193130493164
    /model.18/m.0/cv2/conv/Conv_output_0:
        qtype: asymmetric_quantized
        qmethod: layer
        dtype: int8
        min:
        -   -13.265241622924805
        max:
        -   12.483736991882324
        scale:
        -   0.10097638672473384
        zero_point:
        -   3
        ori_min:
        -   -13.265241622924805
        ori_max:
        -   12.483736991882324
    /model.18/m.0/cv2/act/Mul_output_0:
        qtype: asymmetric_quantized
        qmethod: layer
        dtype: int8
        min:
        -   -0.27846458554267883
        max:
        -   12.483689308166504
        scale:
        -   0.050047662328271306
        zero_point:
        -   -122
        ori_min:
        -   -0.27846458554267883
        ori_max:
        -   12.483689308166504
    /model.18/Concat_output_0:
        qtype: asymmetric_quantized
        qmethod: layer
        dtype: int8
        min:
        -   -0.27846458554267883
        max:
        -   12.483689308166504
        scale:
        -   0.050047662328271306
        zero_point:
        -   -122
        ori_min:
        -   -0.27846458554267883
        ori_max:
        -   12.483689308166504
    /model.18/cv2/conv/Conv_output_0:
        qtype: asymmetric_quantized
        qmethod: layer
        dtype: int8
        min:
        -   -14.583444595336914
        max:
        -   6.724151134490967
        scale:
        -   0.0835591989405015
        zero_point:
        -   47
        ori_min:
        -   -14.583444595336914
        ori_max:
        -   6.724151134490967
    /model.18/cv2/act/Mul_output_0:
        qtype: asymmetric_quantized
        qmethod: layer
        dtype: int8
        min:
        -   -0.27846458554267883
        max:
        -   6.716081619262695
        scale:
        -   0.027429592960021076
        zero_point:
        -   -118
        ori_min:
        -   -0.27846458554267883
        ori_max:
        -   6.716081619262695
    /model.19/conv/Conv_output_0:
        qtype: asymmetric_quantized
        qmethod: layer
        dtype: int8
        min:
        -   -13.744050979614258
        max:
        -   8.670093536376953
        scale:
        -   0.08789860594506357
        zero_point:
        -   28
        ori_min:
        -   -13.744050979614258
        ori_max:
        -   8.670093536376953
    /model.19/act/Mul_output_0:
        qtype: asymmetric_quantized
        qmethod: layer
        dtype: int8
        min:
        -   -0.27846458554267883
        max:
        -   8.668604850769043
        scale:
        -   0.035086546809065575
        zero_point:
        -   -120
        ori_min:
        -   -0.27846458554267883
        ori_max:
        -   8.668604850769043
    /model.20/Concat_output_0:
        qtype: asymmetric_quantized
        qmethod: layer
        dtype: int8
        min:
        -   -0.27846458554267883
        max:
        -   11.306568145751953
        scale:
        -   0.04543150090703777
        zero_point:
        -   -122
        ori_min:
        -   -0.27846458554267883
        ori_max:
        -   11.306568145751953
    /model.21/cv1/conv/Conv_output_0:
        qtype: asymmetric_quantized
        qmethod: layer
        dtype: int8
        min:
        -   -12.40911865234375
        max:
        -   11.237746238708496
        scale:
        -   0.09273280349432253
        zero_point:
        -   6
        ori_min:
        -   -12.40911865234375
        ori_max:
        -   11.237746238708496
    /model.21/cv1/act/Mul_output_0:
        qtype: asymmetric_quantized
        qmethod: layer
        dtype: int8
        min:
        -   -0.27846458554267883
        max:
        -   11.237598419189453
        scale:
        -   0.0451610313911064
        zero_point:
        -   -122
        ori_min:
        -   -0.27846458554267883
        ori_max:
        -   11.237598419189453
    /model.21/Split_output_0:
        qtype: asymmetric_quantized
        qmethod: layer
        dtype: int8
        min:
        -   -0.27846458554267883
        max:
        -   9.188396453857422
        scale:
        -   0.03712494525254941
        zero_point:
        -   -120
        ori_min:
        -   -0.27846458554267883
        ori_max:
        -   9.188396453857422
    /model.21/Split_output_1:
        qtype: asymmetric_quantized
        qmethod: layer
        dtype: int8
        min:
        -   -0.27846458554267883
        max:
        -   11.237598419189453
        scale:
        -   0.0451610313911064
        zero_point:
        -   -122
        ori_min:
        -   -0.27846458554267883
        ori_max:
        -   11.237598419189453
    /model.21/m.0/cv1/conv/Conv_output_0:
        qtype: asymmetric_quantized
        qmethod: layer
        dtype: int8
        min:
        -   -10.989592552185059
        max:
        -   9.292104721069336
        scale:
        -   0.07953606773825253
        zero_point:
        -   10
        ori_min:
        -   -10.989592552185059
        ori_max:
        -   9.292104721069336
    /model.21/m.0/cv1/act/Mul_output_0:
        qtype: asymmetric_quantized
        qmethod: layer
        dtype: int8
        min:
        -   -0.27846458554267883
        max:
        -   9.291248321533203
        scale:
        -   0.037528285910101496
        zero_point:
        -   -121
        ori_min:
        -   -0.27846458554267883
        ori_max:
        -   9.291248321533203
    /model.21/m.0/cv2/conv/Conv_output_0:
        qtype: asymmetric_quantized
        qmethod: layer
        dtype: int8
        min:
        -   -16.591947555541992
        max:
        -   14.700634956359863
        scale:
        -   0.12271600985059551
        zero_point:
        -   7
        ori_min:
        -   -16.591947555541992
        ori_max:
        -   14.700634956359863
    /model.21/m.0/cv2/act/Mul_output_0:
        qtype: asymmetric_quantized
        qmethod: layer
        dtype: int8
        min:
        -   -0.27846458554267883
        max:
        -   14.700629234313965
        scale:
        -   0.05874154439159468
        zero_point:
        -   -123
        ori_min:
        -   -0.27846458554267883
        ori_max:
        -   14.700629234313965
    /model.21/Concat_output_0:
        qtype: asymmetric_quantized
        qmethod: layer
        dtype: int8
        min:
        -   -0.27846458554267883
        max:
        -   14.700629234313965
        scale:
        -   0.05874154439159468
        zero_point:
        -   -123
        ori_min:
        -   -0.27846458554267883
        ori_max:
        -   14.700629234313965
    /model.21/cv2/conv/Conv_output_0:
        qtype: asymmetric_quantized
        qmethod: layer
        dtype: int8
        min:
        -   -25.899866104125977
        max:
        -   11.218545913696289
        scale:
        -   0.14556240006989124
        zero_point:
        -   50
        ori_min:
        -   -25.899866104125977
        ori_max:
        -   11.218545913696289
    /model.21/cv2/act/Mul_output_0:
        qtype: asymmetric_quantized
        qmethod: layer
        dtype: int8
        min:
        -   -0.27846458554267883
        max:
        -   11.218395233154297
        scale:
        -   0.04508572477920383
        zero_point:
        -   -122
        ori_min:
        -   -0.27846458554267883
        ori_max:
        -   11.218395233154297
    /model.22/cv2.2/cv2.2.0/conv/Conv_output_0:
        qtype: asymmetric_quantized
        qmethod: layer
        dtype: int8
        min:
        -   -19.067724227905273
        max:
        -   15.284010887145996
        scale:
        -   0.13471268672569126
        zero_point:
        -   14
        ori_min:
        -   -19.067724227905273
        ori_max:
        -   15.284010887145996
    /model.22/cv2.2/cv2.2.0/act/Mul_output_0:
        qtype: asymmetric_quantized
        qmethod: layer
        dtype: int8
        min:
        -   -0.27846455574035645
        max:
        -   15.28400707244873
        scale:
        -   0.061029300502702305
        zero_point:
        -   -123
        ori_min:
        -   -0.27846455574035645
        ori_max:
        -   15.28400707244873
    /model.22/cv2.2/cv2.2.1/conv/Conv_output_0:
        qtype: asymmetric_quantized
        qmethod: layer
        dtype: int8
        min:
        -   -25.89678192138672
        max:
        -   61.64885330200195
        scale:
        -   0.34331621656230854
        zero_point:
        -   -53
        ori_min:
        -   -25.89678192138672
        ori_max:
        -   61.64885330200195
    /model.22/cv2.2/cv2.2.1/act/Mul_output_0:
        qtype: asymmetric_quantized
        qmethod: layer
        dtype: int8
        min:
        -   -0.27846458554267883
        max:
        -   61.64885330200195
        scale:
        -   0.24285222700997894
        zero_point:
        -   -127
        ori_min:
        -   -0.27846458554267883
        ori_max:
        -   61.64885330200195
    /model.22/cv2.2/cv2.2.2/Conv_output_0:
        qtype: asymmetric_quantized
        qmethod: layer
        dtype: int8
        min:
        -   -8.00428581237793
        max:
        -   14.602741241455078
        scale:
        -   0.08865500805424709
        zero_point:
        -   -38
        ori_min:
        -   -8.00428581237793
        ori_max:
        -   14.602741241455078
    /model.22/cv3.2/cv3.2.0/conv/Conv_output_0:
        qtype: asymmetric_quantized
        qmethod: layer
        dtype: int8
        min:
        -   -27.851659774780273
        max:
        -   12.61010456085205
        scale:
        -   0.1586735856299307
        zero_point:
        -   48
        ori_min:
        -   -27.851659774780273
        ori_max:
        -   12.61010456085205
    /model.22/cv3.2/cv3.2.0/act/Mul_output_0:
        qtype: asymmetric_quantized
        qmethod: layer
        dtype: int8
        min:
        -   -0.27846458554267883
        max:
        -   12.610062599182129
        scale:
        -   0.050543243861665914
        zero_point:
        -   -122
        ori_min:
        -   -0.27846458554267883
        ori_max:
        -   12.610062599182129
    /model.22/cv3.2/cv3.2.1/conv/Conv_output_0:
        qtype: asymmetric_quantized
        qmethod: layer
        dtype: int8
        min:
        -   -82.19192504882812
        max:
        -   112.39610290527344
        scale:
        -   0.763090305702359
        zero_point:
        -   -20
        ori_min:
        -   -82.19192504882812
        ori_max:
        -   112.39610290527344
    /model.22/cv3.2/cv3.2.1/act/Mul_output_0:
        qtype: asymmetric_quantized
        qmethod: layer
        dtype: int8
        min:
        -   -0.27846458554267883
        max:
        -   112.39610290527344
        scale:
        -   0.44186104898359263
        zero_point:
        -   -127
        ori_min:
        -   -0.27846458554267883
        ori_max:
        -   112.39610290527344
    /model.22/cv3.2/cv3.2.2/Conv_output_0:
        qtype: asymmetric_quantized
        qmethod: layer
        dtype: int8
        min:
        -   -9.437621116638184
        max:
        -   2.8337135314941406
        scale:
        -   0.04812288097306794
        zero_point:
        -   68
        ori_min:
        -   -62.2473258972168
        ori_max:
        -   2.8337135314941406
    /model.22/Concat_2_output_0:
        qtype: asymmetric_quantized
        qmethod: layer
        dtype: int8
        min:
        -   -9.437621116638184
        max:
        -   14.602741241455078
        scale:
        -   0.09427593081605201
        zero_point:
        -   -28
        ori_min:
        -   -62.2473258972168
        ori_max:
        -   14.602741241455078
    /model.22/Reshape_2_output_0_shape4_/model.22/Concat_3:
        qtype: asymmetric_quantized
        qmethod: layer
        dtype: int8
        min:
        -   -9.437621116638184
        max:
        -   14.602741241455078
        scale:
        -   0.09427593081605201
        zero_point:
        -   -28
        ori_min:
        -   -62.2473258972168
        ori_max:
        -   14.602741241455078
    /model.22/cv2.1/cv2.1.0/conv/Conv_output_0:
        qtype: asymmetric_quantized
        qmethod: layer
        dtype: int8
        min:
        -   -21.829936981201172
        max:
        -   14.447480201721191
        scale:
        -   0.14226438110949946
        zero_point:
        -   25
        ori_min:
        -   -21.829936981201172
        ori_max:
        -   14.447480201721191
    /model.22/cv2.1/cv2.1.0/act/Mul_output_0:
        qtype: asymmetric_quantized
        qmethod: layer
        dtype: int8
        min:
        -   -0.27846458554267883
        max:
        -   14.447473526000977
        scale:
        -   0.05774877690801433
        zero_point:
        -   -123
        ori_min:
        -   -0.27846458554267883
        ori_max:
        -   14.447473526000977
    /model.22/cv2.1/cv2.1.1/conv/Conv_output_0:
        qtype: asymmetric_quantized
        qmethod: layer
        dtype: int8
        min:
        -   -33.665489196777344
        max:
        -   65.32910919189453
        scale:
        -   0.388214111328125
        zero_point:
        -   -41
        ori_min:
        -   -33.665489196777344
        ori_max:
        -   65.32910919189453
    /model.22/cv2.1/cv2.1.1/act/Mul_output_0:
        qtype: asymmetric_quantized
        qmethod: layer
        dtype: int8
        min:
        -   -0.27846458554267883
        max:
        -   65.32910919189453
        scale:
        -   0.2572846030487734
        zero_point:
        -   -127
        ori_min:
        -   -0.27846458554267883
        ori_max:
        -   65.32910919189453
    /model.22/cv2.1/cv2.1.2/Conv_output_0:
        qtype: asymmetric_quantized
        qmethod: layer
        dtype: int8
        min:
        -   -9.437621116638184
        max:
        -   15.064666748046875
        scale:
        -   0.0960874033909218
        zero_point:
        -   -30
        ori_min:
        -   -9.437621116638184
        ori_max:
        -   15.064666748046875
    /model.22/cv3.1/cv3.1.0/conv/Conv_output_0:
        qtype: asymmetric_quantized
        qmethod: layer
        dtype: int8
        min:
        -   -14.858379364013672
        max:
        -   8.883153915405273
        scale:
        -   0.09310405207615273
        zero_point:
        -   32
        ori_min:
        -   -14.858379364013672
        ori_max:
        -   8.883153915405273
    /model.22/cv3.1/cv3.1.0/act/Mul_output_0:
        qtype: asymmetric_quantized
        qmethod: layer
        dtype: int8
        min:
        -   -0.27846458554267883
        max:
        -   8.881921768188477
        scale:
        -   0.03592308374012218
        zero_point:
        -   -120
        ori_min:
        -   -0.27846458554267883
        ori_max:
        -   8.881921768188477
    /model.22/cv3.1/cv3.1.1/conv/Conv_output_0:
        qtype: asymmetric_quantized
        qmethod: layer
        dtype: int8
        min:
        -   -130.2564239501953
        max:
        -   128.3345489501953
        scale:
        -   1.0140822466681985
        zero_point:
        -   0
        ori_min:
        -   -130.2564239501953
        ori_max:
        -   128.3345489501953
    /model.22/cv3.1/cv3.1.1/act/Mul_output_0:
        qtype: asymmetric_quantized
        qmethod: layer
        dtype: int8
        min:
        -   -0.27846458554267883
        max:
        -   128.3345489501953
        scale:
        -   0.5043647589636784
        zero_point:
        -   -127
        ori_min:
        -   -0.27846458554267883
        ori_max:
        -   128.3345489501953
    /model.22/cv3.1/cv3.1.2/Conv_output_0:
        qtype: asymmetric_quantized
        qmethod: layer
        dtype: int8
        min:
        -   -9.437621116638184
        max:
        -   3.3056116104125977
        scale:
        -   0.049973461674708945
        zero_point:
        -   61
        ori_min:
        -   -53.56867218017578
        ori_max:
        -   3.3056116104125977
    /model.22/Concat_1_output_0:
        qtype: asymmetric_quantized
        qmethod: layer
        dtype: int8
        min:
        -   -9.437621116638184
        max:
        -   15.064666748046875
        scale:
        -   0.0960874033909218
        zero_point:
        -   -30
        ori_min:
        -   -53.56867218017578
        ori_max:
        -   15.064666748046875
    /model.22/Reshape_1_output_0_shape4_/model.22/Concat_3:
        qtype: asymmetric_quantized
        qmethod: layer
        dtype: int8
        min:
        -   -9.437621116638184
        max:
        -   15.064666748046875
        scale:
        -   0.0960874033909218
        zero_point:
        -   -30
        ori_min:
        -   -53.56867218017578
        ori_max:
        -   15.064666748046875
    /model.22/cv2.0/cv2.0.0/conv/Conv_output_0:
        qtype: asymmetric_quantized
        qmethod: layer
        dtype: int8
        min:
        -   -17.297630310058594
        max:
        -   7.515030860900879
        scale:
        -   0.09730455361160578
        zero_point:
        -   50
        ori_min:
        -   -17.297630310058594
        ori_max:
        -   7.515030860900879
    /model.22/cv2.0/cv2.0.0/act/Mul_output_0:
        qtype: asymmetric_quantized
        qmethod: layer
        dtype: int8
        min:
        -   -0.27846458554267883
        max:
        -   7.510939121246338
        scale:
        -   0.030546681203094183
        zero_point:
        -   -119
        ori_min:
        -   -0.27846458554267883
        ori_max:
        -   7.510939121246338
    /model.22/cv2.0/cv2.0.1/conv/Conv_output_0:
        qtype: asymmetric_quantized
        qmethod: layer
        dtype: int8
        min:
        -   -31.098947525024414
        max:
        -   49.18805694580078
        scale:
        -   0.3148509979248047
        zero_point:
        -   -29
        ori_min:
        -   -31.098947525024414
        ori_max:
        -   49.18805694580078
    /model.22/cv2.0/cv2.0.1/act/Mul_output_0:
        qtype: asymmetric_quantized
        qmethod: layer
        dtype: int8
        min:
        -   -0.27846458554267883
        max:
        -   49.18805694580078
        scale:
        -   0.19398635894644495
        zero_point:
        -   -127
        ori_min:
        -   -0.27846458554267883
        ori_max:
        -   49.18805694580078
    /model.22/cv2.0/cv2.0.2/Conv_output_0:
        qtype: asymmetric_quantized
        qmethod: layer
        dtype: int8
        min:
        -   -9.165918350219727
        max:
        -   24.77153778076172
        scale:
        -   0.13308806325875078
        zero_point:
        -   -59
        ori_min:
        -   -9.165918350219727
        ori_max:
        -   24.77153778076172
    /model.22/cv3.0/cv3.0.0/conv/Conv_output_0:
        qtype: asymmetric_quantized
        qmethod: layer
        dtype: int8
        min:
        -   -12.568166732788086
        max:
        -   6.854028701782227
        scale:
        -   0.0761654722924326
        zero_point:
        -   37
        ori_min:
        -   -12.568166732788086
        ori_max:
        -   6.854028701782227
    /model.22/cv3.0/cv3.0.0/act/Mul_output_0:
        qtype: asymmetric_quantized
        qmethod: layer
        dtype: int8
        min:
        -   -0.27846458554267883
        max:
        -   6.846803665161133
        scale:
        -   0.027942228434132594
        zero_point:
        -   -118
        ori_min:
        -   -0.27846458554267883
        ori_max:
        -   6.846803665161133
    /model.22/cv3.0/cv3.0.1/conv/Conv_output_0:
        qtype: asymmetric_quantized
        qmethod: layer
        dtype: int8
        min:
        -   -100.45662689208984
        max:
        -   107.15464782714844
        scale:
        -   0.8141618616440717
        zero_point:
        -   -5
        ori_min:
        -   -100.45662689208984
        ori_max:
        -   107.15464782714844
    /model.22/cv3.0/cv3.0.1/act/Mul_output_0:
        qtype: asymmetric_quantized
        qmethod: layer
        dtype: int8
        min:
        -   -0.27846458554267883
        max:
        -   107.15464782714844
        scale:
        -   0.421306323187024
        zero_point:
        -   -127
        ori_min:
        -   -0.27846458554267883
        ori_max:
        -   107.15464782714844
    /model.22/cv3.0/cv3.0.2/Conv_output_0:
        qtype: asymmetric_quantized
        qmethod: layer
        dtype: int8
        min:
        -   -9.437621116638184
        max:
        -   2.7535715103149414
        scale:
        -   0.047808598537071076
        zero_point:
        -   69
        ori_min:
        -   -36.902259826660156
        ori_max:
        -   2.7535715103149414
    /model.22/Concat_output_0:
        qtype: asymmetric_quantized
        qmethod: layer
        dtype: int8
        min:
        -   -9.437621116638184
        max:
        -   24.77153778076172
        scale:
        -   0.13415356430352904
        zero_point:
        -   -58
        ori_min:
        -   -36.902259826660156
        ori_max:
        -   24.77153778076172
    /model.22/Reshape_output_0_shape4_/model.22/Concat_3:
        qtype: asymmetric_quantized
        qmethod: layer
        dtype: int8
        min:
        -   -9.437621116638184
        max:
        -   24.77153778076172
        scale:
        -   0.13415356430352904
        zero_point:
        -   -58
        ori_min:
        -   -36.902259826660156
        ori_max:
        -   24.77153778076172
    /model.22/Concat_3_output_0:
        qtype: asymmetric_quantized
        qmethod: layer
        dtype: int8
        min:
        -   -9.437621116638184
        max:
        -   24.77153778076172
        scale:
        -   0.13415356430352904
        zero_point:
        -   -58
        ori_min:
        -   -62.2473258972168
        ori_max:
        -   24.77153778076172
    /model.22/Split_output_0_shape4:
        qtype: asymmetric_quantized
        qmethod: layer
        dtype: int8
        min:
        -   -9.437621116638184
        max:
        -   24.77153778076172
        scale:
        -   0.13415356430352904
        zero_point:
        -   -58
        ori_min:
        -   -9.437621116638184
        ori_max:
        -   24.77153778076172
    /model.22/Split_output_1:
        qtype: asymmetric_quantized
        qmethod: layer
        dtype: int8
        min:
        -   -7.0
        max:
        -   3.3056116104125977
        scale:
        -   0.040414163178088616
        zero_point:
        -   45
        ori_min:
        -   -62.2473258972168
        ori_max:
        -   3.3056116104125977
    /model.22/dfl/Reshape_output_0:
        qtype: asymmetric_quantized
        qmethod: layer
        dtype: int8
        min:
        -   -9.437621116638184
        max:
        -   24.77153778076172
        scale:
        -   0.13415356430352904
        zero_point:
        -   -58
        ori_min:
        -   -9.437621116638184
        ori_max:
        -   24.77153778076172
    /model.22/dfl/Softmax_pre_tp:
        qtype: asymmetric_quantized
        qmethod: layer
        dtype: int8
        min:
        -   -9.437621116638184
        max:
        -   24.77153778076172
        scale:
        -   0.13415356430352904
        zero_point:
        -   -58
        ori_min:
        -   -9.437621116638184
        ori_max:
        -   24.77153778076172
    /model.22/dfl/Softmax_new:
        qtype: asymmetric_quantized
        qmethod: layer
        dtype: int8
        min:
        -   0.0
        max:
        -   0.9561847448348999
        scale:
        -   0.0037497440973917645
        zero_point:
        -   -128
        ori_min:
        -   6.844128535394775e-14
        ori_max:
        -   0.9561847448348999
    /model.22/dfl/conv/Conv_output_0:
        qtype: asymmetric_quantized
        qmethod: layer
        dtype: int8
        min:
        -   0.0
        max:
        -   14.722199440002441
        scale:
        -   0.05773411545098996
        zero_point:
        -   -128
        ori_min:
        -   0.04397951066493988
        ori_max:
        -   14.722199440002441
    /model.22/dfl/Reshape_1_output_0_shape4_/model.22/Slice_2split:
        qtype: asymmetric_quantized
        qmethod: layer
        dtype: int8
        min:
        -   0.0
        max:
        -   14.722199440002441
        scale:
        -   0.05773411545098996
        zero_point:
        -   -128
        ori_min:
        -   0.04397951066493988
        ori_max:
        -   14.722199440002441
    /model.22/dfl/Reshape_1_output_0_shape4_/model.22/Slice_2split_conv_/model.22/Slice_2split:
        qtype: asymmetric_quantized
        qmethod: layer
        dtype: int8
        min:
        -   0.0
        max:
        -   14.722199440002441
        scale:
        -   0.05773411545098996
        zero_point:
        -   -128
        ori_min:
        -   0.0
        ori_max:
        -   14.722199440002441
    /model.22/Slice_output_0_shape4_before_conv:
        qtype: asymmetric_quantized
        qmethod: layer
        dtype: int8
        min:
        -   0.0
        max:
        -   14.722199440002441
        scale:
        -   0.05773411545098996
        zero_point:
        -   -128
        ori_min:
        -   0.0
        ori_max:
        -   14.722199440002441
    /model.22/Slice_1_output_0:
        qtype: asymmetric_quantized
        qmethod: layer
        dtype: int8
        min:
        -   0.0
        max:
        -   14.402791976928711
        scale:
        -   0.05648153716442632
        zero_point:
        -   -128
        ori_min:
        -   0.04397951066493988
        ori_max:
        -   14.402791976928711
    /model.22/Slice_output_0:
        qtype: asymmetric_quantized
        qmethod: layer
        dtype: int8
        min:
        -   0.0
        max:
        -   14.722199440002441
        scale:
        -   0.05773411545098996
        zero_point:
        -   -128
        ori_min:
        -   0.04579910635948181
        ori_max:
        -   14.722199440002441
    /model.22/Sub_output_0:
        qtype: asymmetric_quantized
        qmethod: layer
        dtype: int8
        min:
        -   -4.043424606323242
        max:
        -   159.3899688720703
        scale:
        -   0.6409152685427199
        zero_point:
        -   -122
        ori_min:
        -   -4.043424606323242
        ori_max:
        -   159.3899688720703
    /model.22/Add_1_output_0:
        qtype: asymmetric_quantized
        qmethod: layer
        dtype: int8
        min:
        -   0.0
        max:
        -   162.50827026367188
        scale:
        -   0.6372873343673406
        zero_point:
        -   -128
        ori_min:
        -   0.5902336835861206
        ori_max:
        -   162.50827026367188
    /model.22/Sub_1_output_0:
        qtype: asymmetric_quantized
        qmethod: layer
        dtype: int8
        min:
        -   0.0
        max:
        -   28.806209564208984
        scale:
        -   0.11296552770278033
        zero_point:
        -   -128
        ori_min:
        -   0.3053779602050781
        ori_max:
        -   28.806209564208984
    /model.22/Concat_4_swap_concat_reshape_i1_out:
        qtype: asymmetric_quantized
        qmethod: layer
        dtype: int8
        min:
        -   0.0
        max:
        -   28.806209564208984
        scale:
        -   0.11296552770278033
        zero_point:
        -   -128
        ori_min:
        -   0.3053779602050781
        ori_max:
        -   28.806209564208984
    /model.22/Add_2_output_0:
        qtype: asymmetric_quantized
        qmethod: layer
        dtype: int8
        min:
        -   0.0
        max:
        -   319.36895751953125
        scale:
        -   1.2524272843903186
        zero_point:
        -   -128
        ori_min:
        -   0.5683431625366211
        ori_max:
        -   319.36895751953125
    /model.22/Div_1_output_0:
        qtype: asymmetric_quantized
        qmethod: layer
        dtype: int8
        min:
        -   0.0
        max:
        -   159.68447875976562
        scale:
        -   0.6262136421951593
        zero_point:
        -   -128
        ori_min:
        -   0.28417158126831055
        ori_max:
        -   159.68447875976562
    /model.22/Concat_4_swap_concat_reshape_i0_out:
        qtype: asymmetric_quantized
        qmethod: layer
        dtype: int8
        min:
        -   0.0
        max:
        -   159.68447875976562
        scale:
        -   0.6262136421951593
        zero_point:
        -   -128
        ori_min:
        -   0.28417158126831055
        ori_max:
        -   159.68447875976562
    /model.22/Concat_4_output_0_shape4:
        qtype: asymmetric_quantized
        qmethod: layer
        dtype: int8
        min:
        -   0.0
        max:
        -   159.68447875976562
        scale:
        -   0.6262136421951593
        zero_point:
        -   -128
        ori_min:
        -   0.28417158126831055
        ori_max:
        -   159.68447875976562
    /model.22/Mul_2_output_0_before:
        qtype: asymmetric_quantized
        qmethod: layer
        dtype: int8
        min:
        -   0.0
        max:
        -   1277.475830078125
        scale:
        -   5.009709137561274
        zero_point:
        -   -128
        ori_min:
        -   2.286815643310547
        ori_max:
        -   1277.475830078125
    /model.22/Sigmoid_output_0:
        qtype: asymmetric_quantized
        qmethod: layer
        dtype: int8
        min:
        -   0.0
        max:
        -   0.96462082862854
        scale:
        -   0.0037828267789354513
        zero_point:
        -   -128
        ori_min:
        -   0.0
        ori_max:
        -   0.96462082862854
    /model.22/Concat_5_swap_concat_reshape_i1_out:
        qtype: asymmetric_quantized
        qmethod: layer
        dtype: int8
        min:
        -   0.0
        max:
        -   0.96462082862854
        scale:
        -   0.0037828267789354513
        zero_point:
        -   -128
        ori_min:
        -   0.0
        ori_max:
        -   0.96462082862854
    output0_shape4:
        qtype: asymmetric_quantized
        qmethod: layer
        dtype: int8
        min:
        -   0.0
        max:
        -   1277.475830078125
        scale:
        -   5.009709137561274
        zero_point:
        -   -128
        ori_min:
        -   0.0
        ori_max:
        -   1277.475830078125
    output0:
        qtype: asymmetric_quantized
        qmethod: layer
        dtype: float32
        min:
        -   0.0
        max:
        -   1277.475830078125
        scale: []
        zero_point: []
        ori_min:
        -   0.0
        ori_max:
        -   1277.475830078125
    /model.22/Constant_9_output_0:
        qtype: symmetric_quantized
        qmethod: layer
        dtype: int32
        min:
        -   -159.5
        max:
        -   159.5
        scale:
        -   7.427297532558441e-08
        zero_point:
        -   0
        ori_min:
        -   0.5
        ori_max:
        -   159.5
    /model.22/Constant_10_output_0:
        qtype: symmetric_quantized
        qmethod: layer
        dtype: int32
        min:
        -   -159.5
        max:
        -   159.5
        scale:
        -   7.427297532558441e-08
        zero_point:
        -   0
        ori_min:
        -   0.5
        ori_max:
        -   159.5
    /model.22/Constant_12_output_0:
        qtype: asymmetric_quantized
        qmethod: layer
        dtype: int16
        min:
        -   0.0
        max:
        -   32.0
        scale:
        -   0.0004882887006942855
        zero_point:
        -   -32768
        ori_min:
        -   8.0
        ori_max:
        -   32.0
    images_int8:
        qtype: asymmetric_quantized
        qmethod: layer
        dtype: int8
        min:
        -   0.0
        max:
        -   1.0
        scale:
        -   0.00392156862745098
        zero_point:
        -   -128
        ori_min:
        -   0.0
        ori_max:
        -   1.0
    output0_int8:
        qtype: asymmetric_quantized
        qmethod: layer
        dtype: int8
        min:
        -   0.0
        max:
        -   1277.475830078125
        scale:
        -   5.009709137561274
        zero_point:
        -   -128
        ori_min:
        -   0.0
        ori_max:
        -   1277.475830078125
